/*
 * Copyright (c) 2025, Arm Limited and affiliates.
 * SPDX-License-Identifier: Apache-2.0
 *
 * Licensed under the Apache License, Version 2.0 (the "License");
 * you may not use this file except in compliance with the License.
 * You may obtain a copy of the License at
 *
 *     http://www.apache.org/licenses/LICENSE-2.0
 *
 * Unless required by applicable law or agreed to in writing, software
 * distributed under the License is distributed on an "AS IS" BASIS,
 * WITHOUT WARRANTIES OR CONDITIONS OF ANY KIND, either express or implied.
 * See the License for the specific language governing permissions and
 * limitations under the License.
 */

/*********************    Autogenerated file. DO NOT EDIT *******************
 * Generated from gen_model_cpp.py tool and ei-g-sensor-test2-classifier-tensorflow-lite-int8-quantized-model.3_vela.tflite file.
 * Date: 2025-04-22 13:21:34.698349
 ***************************************************************************/

#include "Model.hpp"
#include "BufAttributes.hpp"

namespace arm
{
namespace app
{
namespace nn
{


static const uint8_t nn_model[] MODEL_TFLITE_ATTRIBUTE =
{
    0x1c, 0x00, 0x00, 0x00, 0x54, 0x46, 0x4c, 0x33, 0x00, 0x00, 0x12, 0x00, 0x1c, 0x00, 0x18, 0x00, 0x14, 0x00, 0x10, 0x00, 0x0c, 0x00, 0x08, 0x00, 0x00, 0x00, 0x04, 0x00, 0x12, 0x00, 0x00, 0x00,
    0x18, 0x00, 0x00, 0x00, 0xc0, 0x00, 0x00, 0x00, 0xbc, 0x29, 0x00, 0x00, 0x1c, 0x27, 0x00, 0x00, 0xd0, 0x29, 0x00, 0x00, 0x03, 0x00, 0x00, 0x00, 0x04, 0x00, 0x00, 0x00, 0x84, 0x00, 0x00, 0x00,
    0x54, 0x00, 0x00, 0x00, 0x30, 0x00, 0x00, 0x00, 0x04, 0x00, 0x00, 0x00, 0x94, 0xff, 0xff, 0xff, 0x06, 0x00, 0x00, 0x00, 0x04, 0x00, 0x00, 0x00, 0x17, 0x00, 0x00, 0x00, 0x4f, 0x66, 0x66, 0x6c,
    0x69, 0x6e, 0x65, 0x4d, 0x65, 0x6d, 0x6f, 0x72, 0x79, 0x41, 0x6c, 0x6c, 0x6f, 0x63, 0x61, 0x74, 0x69, 0x6f, 0x6e, 0x00, 0xbc, 0xff, 0xff, 0xff, 0x05, 0x00, 0x00, 0x00, 0x04, 0x00, 0x00, 0x00,
    0x0c, 0x00, 0x00, 0x00, 0x76, 0x65, 0x6c, 0x61, 0x5f, 0x76, 0x65, 0x72, 0x73, 0x69, 0x6f, 0x6e, 0x00, 0x00, 0x00, 0x00, 0xdc, 0xff, 0xff, 0xff, 0x04, 0x00, 0x00, 0x00, 0x04, 0x00, 0x00, 0x00,
    0x13, 0x00, 0x00, 0x00, 0x43, 0x4f, 0x4e, 0x56, 0x45, 0x52, 0x53, 0x49, 0x4f, 0x4e, 0x5f, 0x4d, 0x45, 0x54, 0x41, 0x44, 0x41, 0x54, 0x41, 0x00, 0x08, 0x00, 0x0c, 0x00, 0x08, 0x00, 0x04, 0x00,
    0x08, 0x00, 0x00, 0x00, 0x03, 0x00, 0x00, 0x00, 0x04, 0x00, 0x00, 0x00, 0x13, 0x00, 0x00, 0x00, 0x6d, 0x69, 0x6e, 0x5f, 0x72, 0x75, 0x6e, 0x74, 0x69, 0x6d, 0x65, 0x5f, 0x76, 0x65, 0x72, 0x73,
    0x69, 0x6f, 0x6e, 0x00, 0x07, 0x00, 0x00, 0x00, 0x5c, 0x26, 0x00, 0x00, 0x88, 0x1b, 0x00, 0x00, 0xf4, 0x00, 0x00, 0x00, 0xd0, 0x00, 0x00, 0x00, 0x5c, 0x00, 0x00, 0x00, 0x38, 0x00, 0x00, 0x00,
    0x04, 0x00, 0x00, 0x00, 0x96, 0xe4, 0xff, 0xff, 0x04, 0x00, 0x00, 0x00, 0x24, 0x00, 0x00, 0x00, 0x00, 0x00, 0x00, 0x00, 0x01, 0x00, 0x00, 0x00, 0x06, 0x00, 0x00, 0x00, 0x00, 0x00, 0x00, 0x00,
    0xff, 0xff, 0xff, 0xff, 0xff, 0xff, 0xff, 0xff, 0x00, 0x00, 0x00, 0x00, 0x00, 0x00, 0x00, 0x00, 0x80, 0x25, 0x00, 0x00, 0xc6, 0xe4, 0xff, 0xff, 0x04, 0x00, 0x00, 0x00, 0x05, 0x00, 0x00, 0x00,
    0x34, 0x2e, 0x30, 0x2e, 0x31, 0x00, 0x00, 0x00, 0x00, 0x00, 0x00, 0x00, 0x00, 0x00, 0x00, 0x00, 0x00, 0x00, 0x00, 0x00, 0xe6, 0xe4, 0xff, 0xff, 0x04, 0x00, 0x00, 0x00, 0x58, 0x00, 0x00, 0x00,
    0x0c, 0x00, 0x00, 0x00, 0x08, 0x00, 0x0e, 0x00, 0x08, 0x00, 0x04, 0x00, 0x08, 0x00, 0x00, 0x00, 0x10, 0x00, 0x00, 0x00, 0x28, 0x00, 0x00, 0x00, 0x00, 0x00, 0x06, 0x00, 0x08, 0x00, 0x04, 0x00,
    0x06, 0x00, 0x00, 0x00, 0x04, 0x00, 0x00, 0x00, 0x01, 0x00, 0x00, 0x00, 0xeb, 0x03, 0x00, 0x00, 0x00, 0x00, 0x0a, 0x00, 0x10, 0x00, 0x0c, 0x00, 0x08, 0x00, 0x04, 0x00, 0x0a, 0x00, 0x00, 0x00,
    0x03, 0x00, 0x00, 0x00, 0x02, 0x00, 0x00, 0x00, 0x04, 0x00, 0x00, 0x00, 0x06, 0x00, 0x00, 0x00, 0x32, 0x2e, 0x31, 0x31, 0x2e, 0x31, 0x00, 0x00, 0x00, 0x00, 0x00, 0x00, 0x00, 0x00, 0x00, 0x00,
    0x00, 0x00, 0x00, 0x00, 0x56, 0xe5, 0xff, 0xff, 0x04, 0x00, 0x00, 0x00, 0x10, 0x00, 0x00, 0x00, 0x32, 0x2e, 0x30, 0x2e, 0x30, 0x00, 0x00, 0x00, 0x00, 0x00, 0x00, 0x00, 0x00, 0x00, 0x00, 0x00,
    0x00, 0x00, 0x00, 0x00, 0x76, 0xe5, 0xff, 0xff, 0x04, 0x00, 0x00, 0x00, 0x70, 0x1a, 0x00, 0x00, 0x00, 0x00, 0x00, 0x00, 0x00, 0x00, 0x00, 0x00, 0x00, 0x00, 0x00, 0x00, 0x00, 0x00, 0x00, 0x00,
    0x00, 0x00, 0x00, 0x00, 0x00, 0x00, 0x00, 0x00, 0x00, 0x00, 0x00, 0x00, 0x00, 0x00, 0x00, 0x00, 0x00, 0x00, 0x00, 0x00, 0x00, 0x00, 0x00, 0x00, 0x00, 0x00, 0x00, 0x00, 0x00, 0x00, 0x00, 0x00,
    0x00, 0x00, 0x00, 0x00, 0x00, 0x00, 0x00, 0x00, 0x00, 0x00, 0x00, 0x00, 0x00, 0x00, 0x00, 0x00, 0x00, 0x00, 0x00, 0x00, 0x00, 0x00, 0x00, 0x00, 0x00, 0x00, 0x00, 0x00, 0x00, 0x00, 0x00, 0x00,
    0x00, 0x00, 0x00, 0x00, 0x00, 0x00, 0x00, 0x00, 0x00, 0x00, 0x00, 0x00, 0x00, 0x00, 0x00, 0x00, 0x00, 0x00, 0x00, 0x00, 0x00, 0x00, 0x00, 0x00, 0x00, 0x00, 0x00, 0x00, 0x00, 0x00, 0x00, 0x00,
    0x00, 0x00, 0x00, 0x00, 0x00, 0x00, 0x00, 0x00, 0x00, 0x00, 0x00, 0x00, 0x00, 0x00, 0x00, 0x00, 0x00, 0x00, 0x00, 0x00, 0x00, 0x00, 0x00, 0x00, 0x00, 0x00, 0x00, 0x00, 0x00, 0x00, 0x00, 0x00,
    0x00, 0x00, 0x00, 0x00, 0x00, 0x00, 0x00, 0x00, 0x00, 0x00, 0x00, 0x00, 0x00, 0x00, 0x00, 0x00, 0x00, 0x00, 0x00, 0x00, 0x00, 0x00, 0x00, 0x00, 0x00, 0x00, 0x00, 0x00, 0x00, 0x00, 0x00, 0x00,
    0x00, 0x00, 0x00, 0x00, 0x00, 0x00, 0x00, 0x00, 0x00, 0x00, 0x00, 0x00, 0x00, 0x00, 0x00, 0x00, 0x00, 0x00, 0x00, 0x00, 0x00, 0x00, 0x00, 0x00, 0x00, 0x00, 0x00, 0x00, 0x00, 0x00, 0x00, 0x00,
    0x00, 0x00, 0x00, 0x00, 0x00, 0x00, 0x00, 0x00, 0x00, 0x00, 0x00, 0x00, 0x00, 0x00, 0x00, 0x00, 0x00, 0x00, 0x00, 0x00, 0x00, 0x00, 0x00, 0x00, 0x00, 0x00, 0x00, 0x00, 0x00, 0x00, 0x00, 0x00,
    0x00, 0x00, 0x00, 0x00, 0x00, 0x00, 0x00, 0x00, 0x00, 0x00, 0x00, 0x00, 0x00, 0x00, 0x00, 0x00, 0x00, 0x00, 0x00, 0x00, 0x00, 0x00, 0x00, 0x00, 0x00, 0x00, 0x00, 0x00, 0x00, 0x00, 0x00, 0x00,
    0x00, 0x00, 0x00, 0x00, 0x00, 0x00, 0x00, 0x00, 0x00, 0x00, 0x00, 0x00, 0x00, 0x00, 0x00, 0x00, 0x00, 0x00, 0x00, 0x00, 0x00, 0x00, 0x00, 0x00, 0x00, 0x00, 0x00, 0x00, 0x00, 0x00, 0x00, 0x00,
    0x00, 0x00, 0x00, 0x00, 0x00, 0x00, 0x00, 0x00, 0x00, 0x00, 0x00, 0x00, 0x00, 0x00, 0x00, 0x00, 0x00, 0x00, 0x00, 0x00, 0x00, 0x00, 0x00, 0x00, 0x00, 0x00, 0x00, 0x00, 0x00, 0x00, 0x00, 0x00,
    0x00, 0x00, 0x00, 0x00, 0x00, 0x00, 0x00, 0x00, 0x00, 0x00, 0x00, 0x00, 0x00, 0x00, 0x00, 0x00, 0x00, 0x00, 0x00, 0x00, 0x00, 0x00, 0x00, 0x00, 0x00, 0x00, 0x00, 0x00, 0x00, 0x00, 0x00, 0x00,
    0x00, 0x00, 0x00, 0x00, 0x00, 0x00, 0x00, 0x00, 0x00, 0x00, 0x00, 0x00, 0x00, 0x00, 0x00, 0x00, 0x00, 0x00, 0x00, 0x00, 0x00, 0x00, 0x00, 0x00, 0x00, 0x00, 0x00, 0x00, 0x00, 0x00, 0x00, 0x00,
    0x00, 0x00, 0x00, 0x00, 0x00, 0x00, 0x00, 0x00, 0x00, 0x00, 0x00, 0x00, 0x00, 0x00, 0x00, 0x00, 0x00, 0x00, 0x00, 0x00, 0x00, 0x00, 0x00, 0x00, 0x00, 0x00, 0x00, 0x00, 0x00, 0x00, 0x00, 0x00,
    0x00, 0x00, 0x00, 0x00, 0x00, 0x00, 0x00, 0x00, 0x00, 0x00, 0x00, 0x00, 0x00, 0x00, 0x00, 0x00, 0x00, 0x00, 0x00, 0x00, 0x00, 0x00, 0x00, 0x00, 0x00, 0x00, 0x00, 0x00, 0x00, 0x00, 0x00, 0x00,
    0x00, 0x00, 0x00, 0x00, 0x00, 0x00, 0x00, 0x00, 0x00, 0x00, 0x00, 0x00, 0x00, 0x00, 0x00, 0x00, 0x00, 0x00, 0x00, 0x00, 0x00, 0x00, 0x00, 0x00, 0x00, 0x00, 0x00, 0x00, 0x00, 0x00, 0x00, 0x00,
    0x00, 0x00, 0x00, 0x00, 0x00, 0x00, 0x00, 0x00, 0x00, 0x00, 0x00, 0x00, 0x00, 0x00, 0x00, 0x00, 0x00, 0x00, 0x00, 0x00, 0x00, 0x00, 0x00, 0x00, 0x00, 0x00, 0x00, 0x00, 0x00, 0x00, 0x00, 0x00,
    0x00, 0x00, 0x00, 0x00, 0x00, 0x00, 0x00, 0x00, 0x00, 0x00, 0x00, 0x00, 0x00, 0x00, 0x00, 0x00, 0x00, 0x00, 0x00, 0x00, 0x00, 0x00, 0x00, 0x00, 0x00, 0x00, 0x00, 0x00, 0x00, 0x00, 0x00, 0x00,
    0x00, 0x00, 0x00, 0x00, 0x00, 0x00, 0x00, 0x00, 0x00, 0x00, 0x00, 0x00, 0x00, 0x00, 0x00, 0x00, 0x00, 0x00, 0x00, 0x00, 0x00, 0x00, 0x00, 0x00, 0x00, 0x00, 0x00, 0x00, 0x00, 0x00, 0x00, 0x00,
    0x00, 0x00, 0x00, 0x00, 0x00, 0x00, 0x00, 0x00, 0x00, 0x00, 0x00, 0x00, 0x00, 0x00, 0x00, 0x00, 0x00, 0x00, 0x00, 0x00, 0x00, 0x00, 0x00, 0x00, 0x00, 0x00, 0x00, 0x00, 0x00, 0x00, 0x00, 0x00,
    0x00, 0x00, 0x00, 0x00, 0x00, 0x00, 0x00, 0x00, 0x00, 0x00, 0x00, 0x00, 0x00, 0x00, 0x00, 0x00, 0x00, 0x00, 0x00, 0x00, 0x00, 0x00, 0x00, 0x00, 0x00, 0x00, 0x00, 0x00, 0x00, 0x00, 0x00, 0x00,
    0x00, 0x00, 0x00, 0x00, 0x00, 0x00, 0x00, 0x00, 0x00, 0x00, 0x00, 0x00, 0x00, 0x00, 0x00, 0x00, 0x00, 0x00, 0x00, 0x00, 0x00, 0x00, 0x00, 0x00, 0x00, 0x00, 0x00, 0x00, 0x00, 0x00, 0x00, 0x00,
    0x00, 0x00, 0x00, 0x00, 0x00, 0x00, 0x00, 0x00, 0x00, 0x00, 0x00, 0x00, 0x00, 0x00, 0x00, 0x00, 0x00, 0x00, 0x00, 0x00, 0x00, 0x00, 0x00, 0x00, 0x00, 0x00, 0x00, 0x00, 0x00, 0x00, 0x00, 0x00,
    0x00, 0x00, 0x00, 0x00, 0x00, 0x00, 0x00, 0x00, 0x00, 0x00, 0x00, 0x00, 0x00, 0x00, 0x00, 0x00, 0x00, 0x00, 0x00, 0x00, 0x00, 0x00, 0x00, 0x00, 0x00, 0x00, 0x00, 0x00, 0x00, 0x00, 0x00, 0x00,
    0x00, 0x00, 0x00, 0x00, 0x00, 0x00, 0x00, 0x00, 0x00, 0x00, 0x00, 0x00, 0x00, 0x00, 0x00, 0x00, 0x00, 0x00, 0x00, 0x00, 0x00, 0x00, 0x00, 0x00, 0x00, 0x00, 0x00, 0x00, 0x00, 0x00, 0x00, 0x00,
    0x00, 0x00, 0x00, 0x00, 0x00, 0x00, 0x00, 0x00, 0x00, 0x00, 0x00, 0x00, 0x00, 0x00, 0x00, 0x00, 0x00, 0x00, 0x00, 0x00, 0x00, 0x00, 0x00, 0x00, 0x00, 0x00, 0x00, 0x00, 0x00, 0x00, 0x00, 0x00,
    0x00, 0x00, 0x00, 0x00, 0x00, 0x00, 0x00, 0x00, 0x00, 0x00, 0x00, 0x00, 0x00, 0x00, 0x00, 0x00, 0x00, 0x00, 0x00, 0x00, 0x00, 0x00, 0x00, 0x00, 0x00, 0x00, 0x00, 0x00, 0x00, 0x00, 0x00, 0x00,
    0x00, 0x00, 0x00, 0x00, 0x00, 0x00, 0x00, 0x00, 0x00, 0x00, 0x00, 0x00, 0x00, 0x00, 0x00, 0x00, 0x00, 0x00, 0x00, 0x00, 0x00, 0x00, 0x00, 0x00, 0x00, 0x00, 0x00, 0x00, 0x00, 0x00, 0x00, 0x00,
    0x00, 0x00, 0x00, 0x00, 0x00, 0x00, 0x00, 0x00, 0x00, 0x00, 0x00, 0x00, 0x00, 0x00, 0x00, 0x00, 0x00, 0x00, 0x00, 0x00, 0x00, 0x00, 0x00, 0x00, 0x00, 0x00, 0x00, 0x00, 0x00, 0x00, 0x00, 0x00,
    0x00, 0x00, 0x00, 0x00, 0x00, 0x00, 0x00, 0x00, 0x00, 0x00, 0x00, 0x00, 0x00, 0x00, 0x00, 0x00, 0x00, 0x00, 0x00, 0x00, 0x00, 0x00, 0x00, 0x00, 0x00, 0x00, 0x00, 0x00, 0x00, 0x00, 0x00, 0x00,
    0x00, 0x00, 0x00, 0x00, 0x00, 0x00, 0x00, 0x00, 0x00, 0x00, 0x00, 0x00, 0x00, 0x00, 0x00, 0x00, 0x00, 0x00, 0x00, 0x00, 0x00, 0x00, 0x00, 0x00, 0x00, 0x00, 0x00, 0x00, 0x00, 0x00, 0x00, 0x00,
    0x00, 0x00, 0x00, 0x00, 0x00, 0x00, 0x00, 0x00, 0x00, 0x00, 0x00, 0x00, 0x00, 0x00, 0x00, 0x00, 0x00, 0x00, 0x00, 0x00, 0x00, 0x00, 0x00, 0x00, 0x00, 0x00, 0x00, 0x00, 0x00, 0x00, 0x00, 0x00,
    0x00, 0x00, 0x00, 0x00, 0x00, 0x00, 0x00, 0x00, 0x00, 0x00, 0x00, 0x00, 0x00, 0x00, 0x00, 0x00, 0x00, 0x00, 0x00, 0x00, 0x00, 0x00, 0x00, 0x00, 0x00, 0x00, 0x00, 0x00, 0x00, 0x00, 0x00, 0x00,
    0x00, 0x00, 0x00, 0x00, 0x00, 0x00, 0x00, 0x00, 0x00, 0x00, 0x00, 0x00, 0x00, 0x00, 0x00, 0x00, 0x00, 0x00, 0x00, 0x00, 0x00, 0x00, 0x00, 0x00, 0x00, 0x00, 0x00, 0x00, 0x00, 0x00, 0x00, 0x00,
    0x00, 0x00, 0x00, 0x00, 0x00, 0x00, 0x00, 0x00, 0x00, 0x00, 0x00, 0x00, 0x00, 0x00, 0x00, 0x00, 0x00, 0x00, 0x00, 0x00, 0x00, 0x00, 0x00, 0x00, 0x00, 0x00, 0x00, 0x00, 0x00, 0x00, 0x00, 0x00,
    0x00, 0x00, 0x00, 0x00, 0x00, 0x00, 0x00, 0x00, 0x00, 0x00, 0x00, 0x00, 0x00, 0x00, 0x00, 0x00, 0x00, 0x00, 0x00, 0x00, 0x01, 0x00, 0x00, 0x00, 0x01, 0x00, 0x00, 0x00, 0x01, 0x00, 0x00, 0x00,
    0x01, 0x00, 0x00, 0x00, 0x01, 0x00, 0x00, 0x00, 0x02, 0x00, 0x00, 0x00, 0x02, 0x00, 0x00, 0x00, 0x03, 0x00, 0x00, 0x00, 0x03, 0x00, 0x00, 0x00, 0x04, 0x00, 0x00, 0x00, 0x05, 0x00, 0x00, 0x00,
    0x07, 0x00, 0x00, 0x00, 0x08, 0x00, 0x00, 0x00, 0x0a, 0x00, 0x00, 0x00, 0x0d, 0x00, 0x00, 0x00, 0x10, 0x00, 0x00, 0x00, 0x13, 0x00, 0x00, 0x00, 0x18, 0x00, 0x00, 0x00, 0x1e, 0x00, 0x00, 0x00,
    0x25, 0x00, 0x00, 0x00, 0x2e, 0x00, 0x00, 0x00, 0x39, 0x00, 0x00, 0x00, 0x47, 0x00, 0x00, 0x00, 0x58, 0x00, 0x00, 0x00, 0x6d, 0x00, 0x00, 0x00, 0x87, 0x00, 0x00, 0x00, 0xa7, 0x00, 0x00, 0x00,
    0xcf, 0x00, 0x00, 0x00, 0x01, 0x01, 0x00, 0x00, 0x3f, 0x01, 0x00, 0x00, 0x8b, 0x01, 0x00, 0x00, 0xea, 0x01, 0x00, 0x00, 0x60, 0x02, 0x00, 0x00, 0xf2, 0x02, 0x00, 0x00, 0xa7, 0x03, 0x00, 0x00,
    0x88, 0x04, 0x00, 0x00, 0x9f, 0x05, 0x00, 0x00, 0xf9, 0x06, 0x00, 0x00, 0xa6, 0x08, 0x00, 0x00, 0xba, 0x0a, 0x00, 0x00, 0x4e, 0x0d, 0x00, 0x00, 0x80, 0x10, 0x00, 0x00, 0x78, 0x14, 0x00, 0x00,
    0x63, 0x19, 0x00, 0x00, 0x7d, 0x1f, 0x00, 0x00, 0x0f, 0x27, 0x00, 0x00, 0x72, 0x30, 0x00, 0x00, 0x17, 0x3c, 0x00, 0x00, 0x88, 0x4a, 0x00, 0x00, 0x71, 0x5c, 0x00, 0x00, 0xa9, 0x72, 0x00, 0x00,
    0x39, 0x8e, 0x00, 0x00, 0x67, 0xb0, 0x00, 0x00, 0xcd, 0xda, 0x00, 0x00, 0x64, 0x0f, 0x01, 0x00, 0x9e, 0x50, 0x01, 0x00, 0x86, 0xa1, 0x01, 0x00, 0xe0, 0x05, 0x02, 0x00, 0x58, 0x82, 0x02, 0x00,
    0xbb, 0x1c, 0x03, 0x00, 0x3a, 0xdc, 0x03, 0x00, 0xbe, 0xc9, 0x04, 0x00, 0x59, 0xf0, 0x05, 0x00, 0xc3, 0x5d, 0x07, 0x00, 0x01, 0x23, 0x09, 0x00, 0x2d, 0x55, 0x0b, 0x00, 0x78, 0x0e, 0x0e, 0x00,
    0x5b, 0x6f, 0x11, 0x00, 0x1d, 0xa0, 0x15, 0x00, 0xb6, 0xd2, 0x1a, 0x00, 0x1d, 0x45, 0x21, 0x00, 0x30, 0x44, 0x29, 0x00, 0x46, 0x2f, 0x33, 0x00, 0xa0, 0x7c, 0x3f, 0x00, 0xea, 0xbe, 0x4e, 0x00,
    0x13, 0xac, 0x61, 0x00, 0xc3, 0x25, 0x79, 0x00, 0xdf, 0x43, 0x96, 0x00, 0x8f, 0x61, 0xba, 0x00, 0x6f, 0x2d, 0xe7, 0x00, 0x9b, 0xbd, 0x1e, 0x01, 0x7f, 0xa8, 0x63, 0x01, 0xdc, 0x23, 0xb9, 0x01,
    0xd9, 0x2a, 0x23, 0x02, 0x9b, 0xad, 0xa6, 0x02, 0x1c, 0xcc, 0x49, 0x03, 0x36, 0x1f, 0x14, 0x04, 0x35, 0x13, 0x0f, 0x05, 0x01, 0x58, 0x46, 0x06, 0x11, 0x6d, 0xc8, 0x07, 0x68, 0x4d, 0xa7, 0x09,
    0x9b, 0x46, 0xf9, 0x0b, 0x80, 0x02, 0xda, 0x0e, 0x0a, 0xd1, 0x6b, 0x12, 0x74, 0x41, 0xd9, 0x16, 0xde, 0x1c, 0x57, 0x1c, 0x4b, 0xde, 0x26, 0x23, 0x53, 0xbb, 0x99, 0x2b, 0x7d, 0x6f, 0x14, 0x36,
    0x31, 0xec, 0x13, 0x43, 0x77, 0x2a, 0x33, 0x53, 0xeb, 0x62, 0x32, 0x67, 0xff, 0xff, 0xff, 0x7f, 0x0c, 0x00, 0x00, 0x00, 0x00, 0x00, 0x00, 0x00, 0x00, 0x00, 0x00, 0x00, 0x00, 0x00, 0x00, 0x00,
    0x23, 0x00, 0x00, 0x00, 0x00, 0x00, 0x00, 0x00, 0x00, 0x00, 0x00, 0x00, 0x00, 0x00, 0x00, 0x00, 0x01, 0x00, 0x00, 0x00, 0x00, 0x00, 0x00, 0x00, 0x00, 0x00, 0x00, 0x00, 0x00, 0x00, 0x00, 0x00,
    0x00, 0x00, 0x00, 0x40, 0x00, 0x00, 0x00, 0x00, 0x00, 0x00, 0x00, 0x00, 0x00, 0x00, 0x00, 0x00, 0xff, 0xff, 0xff, 0x7f, 0x00, 0x00, 0x00, 0x00, 0x00, 0x00, 0x00, 0x00, 0x00, 0x00, 0x00, 0x00,
    0xc4, 0xc3, 0xc3, 0xc3, 0x00, 0x00, 0x00, 0x00, 0x00, 0x00, 0x00, 0x00, 0x00, 0x00, 0x00, 0x00, 0x5a, 0x5a, 0x5a, 0x5a, 0x00, 0x00, 0x00, 0x00, 0x00, 0x00, 0x00, 0x00, 0x00, 0x00, 0x00, 0x00,
    0x00, 0x00, 0x00, 0x20, 0x00, 0x00, 0x00, 0x00, 0x00, 0x00, 0x00, 0x00, 0x00, 0x00, 0x00, 0x00, 0x04, 0x00, 0x00, 0x00, 0x00, 0x00, 0x00, 0x00, 0x00, 0x00, 0x00, 0x00, 0x00, 0x00, 0x00, 0x00,
    0x02, 0x00, 0x00, 0x00, 0x00, 0x00, 0x00, 0x00, 0x00, 0x00, 0x00, 0x00, 0x00, 0x00, 0x00, 0x00, 0x57, 0xfc, 0xff, 0xff, 0xff, 0x83, 0x47, 0x07, 0x4d, 0x25, 0x85, 0xfe, 0xff, 0xff, 0xff, 0x83,
    0x47, 0x07, 0x4d, 0x25, 0x09, 0x01, 0x00, 0x00, 0x00, 0x83, 0x47, 0x07, 0x4d, 0x25, 0xe5, 0xfe, 0xff, 0xff, 0xff, 0x83, 0x47, 0x07, 0x4d, 0x25, 0x17, 0xfa, 0xff, 0xff, 0xff, 0x83, 0x47, 0x07,
    0x4d, 0x25, 0x1c, 0x01, 0x00, 0x00, 0x00, 0x83, 0x47, 0x07, 0x4d, 0x25, 0x6f, 0xfd, 0xff, 0xff, 0xff, 0x83, 0x47, 0x07, 0x4d, 0x25, 0x3c, 0xfe, 0xff, 0xff, 0xff, 0x83, 0x47, 0x07, 0x4d, 0x25,
    0xfa, 0x00, 0x5c, 0xa8, 0xcd, 0x27, 0xc4, 0xc3, 0x71, 0xf1, 0x3f, 0x2a, 0xea, 0xd9, 0x19, 0xe9, 0x58, 0x48, 0xb8, 0x07, 0xb7, 0xa6, 0x15, 0x04, 0xb4, 0x13, 0x83, 0x42, 0xb2, 0xa1, 0x01, 0xa1,
    0xaa, 0xaa, 0x9a, 0x8d, 0xa0, 0x2f, 0x85, 0x13, 0x21, 0x62, 0xfc, 0xaf, 0xaa, 0xf2, 0x02, 0x3d, 0xaa, 0x12, 0xd8, 0x91, 0xf6, 0xff, 0xaa, 0xfa, 0xff, 0xaa, 0x6a, 0x01, 0x29, 0x2b, 0x8c, 0xf9,
    0xff, 0x0a, 0xf0, 0xff, 0xff, 0xff, 0xff, 0xff, 0xff, 0xff, 0xff, 0xff, 0xff, 0xff, 0xff, 0xff, 0xc0, 0xfb, 0xff, 0xff, 0xff, 0x90, 0x6e, 0xcc, 0x4a, 0x25, 0xf7, 0xfe, 0xff, 0xff, 0xff, 0x90,
    0x6e, 0xcc, 0x4a, 0x25, 0x50, 0xfc, 0xff, 0xff, 0xff, 0x90, 0x6e, 0xcc, 0x4a, 0x25, 0xac, 0x09, 0x00, 0x00, 0x00, 0x90, 0x6e, 0xcc, 0x4a, 0x25, 0xd3, 0x0d, 0x00, 0x00, 0x00, 0x90, 0x6e, 0xcc,
    0x4a, 0x25, 0xbc, 0x13, 0x00, 0x00, 0x00, 0x90, 0x6e, 0xcc, 0x4a, 0x25, 0x1f, 0x02, 0x00, 0x00, 0x00, 0x90, 0x6e, 0xcc, 0x4a, 0x25, 0xa3, 0x04, 0x00, 0x00, 0x00, 0x90, 0x6e, 0xcc, 0x4a, 0x25,
    0x13, 0x01, 0x00, 0x00, 0x00, 0x90, 0x6e, 0xcc, 0x4a, 0x25, 0x38, 0xfc, 0xff, 0xff, 0xff, 0x90, 0x6e, 0xcc, 0x4a, 0x25, 0x05, 0xff, 0xff, 0xff, 0xff, 0x90, 0x6e, 0xcc, 0x4a, 0x25, 0x8c, 0x00,
    0x00, 0x00, 0x00, 0x90, 0x6e, 0xcc, 0x4a, 0x25, 0x36, 0xf9, 0xff, 0xff, 0xff, 0x90, 0x6e, 0xcc, 0x4a, 0x25, 0x85, 0xfe, 0xff, 0xff, 0xff, 0x90, 0x6e, 0xcc, 0x4a, 0x25, 0x8f, 0xfc, 0xff, 0xff,
    0xff, 0x90, 0x6e, 0xcc, 0x4a, 0x25, 0x31, 0x00, 0x00, 0x00, 0x00, 0x90, 0x6e, 0xcc, 0x4a, 0x25, 0x00, 0x01, 0x00, 0x00, 0x00, 0x90, 0x6e, 0xcc, 0x4a, 0x25, 0x6e, 0xfa, 0xff, 0xff, 0xff, 0x90,
    0x6e, 0xcc, 0x4a, 0x25, 0x3b, 0xf5, 0xff, 0xff, 0xff, 0x90, 0x6e, 0xcc, 0x4a, 0x25, 0xd3, 0x13, 0x00, 0x00, 0x00, 0x90, 0x6e, 0xcc, 0x4a, 0x25, 0x00, 0x00, 0x00, 0x00, 0x00, 0x00, 0x00, 0x00,
    0xf0, 0x01, 0xdc, 0x02, 0x0c, 0x00, 0x4d, 0x42, 0x8d, 0xb5, 0x13, 0x1f, 0x63, 0x59, 0x00, 0x60, 0x95, 0x32, 0x83, 0x25, 0xe8, 0x96, 0x14, 0x07, 0x00, 0x1c, 0x0e, 0x4a, 0x38, 0x36, 0x1b, 0x1a,
    0x0e, 0x37, 0x91, 0x64, 0x24, 0x48, 0x87, 0x76, 0x10, 0x40, 0x40, 0xe6, 0x46, 0xe8, 0x04, 0x7a, 0x45, 0x93, 0x01, 0x00, 0x6c, 0x1c, 0x49, 0xa0, 0x97, 0x26, 0x12, 0x8b, 0x6a, 0x87, 0x2c, 0x20,
    0x77, 0x54, 0x02, 0x08, 0xf0, 0xff, 0x06, 0xd0, 0x78, 0x0a, 0x54, 0x86, 0xf8, 0xff, 0xff, 0xff, 0xff, 0xff, 0xff, 0xff, 0xff, 0xff, 0xff, 0xff, 0xff, 0xff, 0xff, 0xff, 0xff, 0xff, 0xff, 0xff,
    0xff, 0xff, 0xff, 0x0f, 0x30, 0x00, 0xc0, 0x01, 0x08, 0x03, 0x7a, 0x00, 0x07, 0x00, 0x1a, 0x06, 0xd5, 0x35, 0x1a, 0x03, 0x3c, 0xba, 0x00, 0x80, 0xe9, 0x0f, 0x6a, 0x12, 0xc9, 0xa9, 0x8c, 0x0e,
    0x02, 0x96, 0x1a, 0x7c, 0xa8, 0x32, 0x26, 0x39, 0x9d, 0xc3, 0x1a, 0xec, 0x14, 0xa8, 0xb6, 0x04, 0xf7, 0x00, 0x40, 0x6d, 0x80, 0x62, 0x45, 0x0f, 0x6c, 0xa0, 0x07, 0x00, 0xc6, 0x2a, 0xa6, 0x82,
    0x1c, 0xcd, 0x72, 0x1c, 0x92, 0xea, 0x72, 0x76, 0x56, 0x54, 0xb3, 0x0e, 0xf9, 0x9f, 0x74, 0x99, 0xe9, 0xaa, 0x09, 0xf0, 0xff, 0xff, 0xff, 0xff, 0xff, 0xff, 0xff, 0xff, 0xff, 0xff, 0xff, 0xff,
    0xff, 0xff, 0xff, 0xff, 0xff, 0xff, 0xff, 0xff, 0xff, 0xff, 0x07, 0x60, 0x00, 0x80, 0x03, 0x30, 0x03, 0x74, 0x00, 0x0e, 0x00, 0x30, 0x8e, 0x31, 0x19, 0xb4, 0x00, 0xa1, 0x2c, 0x02, 0xc0, 0x46,
    0xa0, 0x3e, 0xc6, 0xa9, 0xc5, 0x51, 0x18, 0x00, 0xf0, 0x6d, 0xe0, 0xb4, 0x0c, 0xe8, 0x4d, 0x82, 0xcd, 0x94, 0x06, 0x39, 0x7e, 0xe9, 0x0c, 0x00, 0x70, 0xfe, 0xff, 0x29, 0xfe, 0x1f, 0xf0, 0xff,
    0xfa, 0xfc, 0xff, 0xff, 0xff, 0xe7, 0x40, 0x42, 0x5c, 0x26, 0x2f, 0x02, 0x00, 0x00, 0x00, 0xe7, 0x40, 0x42, 0x5c, 0x26, 0xe5, 0x0e, 0x00, 0x00, 0x00, 0xe7, 0x40, 0x42, 0x5c, 0x26, 0xfc, 0x04,
    0x00, 0x00, 0x00, 0xe7, 0x40, 0x42, 0x5c, 0x26, 0xd9, 0x04, 0x00, 0x00, 0x00, 0xe7, 0x40, 0x42, 0x5c, 0x26, 0x4c, 0xff, 0xff, 0xff, 0xff, 0xe7, 0x40, 0x42, 0x5c, 0x26, 0x97, 0xfb, 0xff, 0xff,
    0xff, 0xe7, 0x40, 0x42, 0x5c, 0x26, 0x5c, 0x10, 0x00, 0x00, 0x00, 0xe7, 0x40, 0x42, 0x5c, 0x26, 0x3f, 0x08, 0x00, 0x00, 0x00, 0xe7, 0x40, 0x42, 0x5c, 0x26, 0xd8, 0x11, 0x00, 0x00, 0x00, 0xe7,
    0x40, 0x42, 0x5c, 0x26, 0x00, 0x00, 0x00, 0x00, 0x00, 0x00, 0x00, 0x00, 0x00, 0x00, 0x00, 0x00, 0xf8, 0x04, 0x5c, 0x01, 0x0c, 0x00, 0x60, 0x4b, 0x6d, 0x1b, 0x20, 0x51, 0x65, 0x33, 0x00, 0xe0,
    0x06, 0x91, 0x76, 0x86, 0xb4, 0x8b, 0x36, 0x04, 0x00, 0x7d, 0x27, 0x69, 0xfa, 0x80, 0xfc, 0x60, 0x67, 0x1a, 0xe5, 0x39, 0x89, 0x19, 0x37, 0x9a, 0x24, 0x00, 0x20, 0x14, 0x36, 0xc8, 0x8d, 0xc3,
    0xb6, 0x92, 0x07, 0x00, 0x19, 0x38, 0x0a, 0x6d, 0x18, 0x4b, 0x4c, 0x6f, 0x7a, 0x15, 0x7a, 0x43, 0x12, 0x4b, 0x8e, 0x0f, 0x00, 0x50, 0xb1, 0xe6, 0xc5, 0x49, 0xa5, 0xa9, 0x62, 0x0a, 0x00, 0x38,
    0x54, 0x26, 0x14, 0x55, 0x85, 0x23, 0x97, 0x3b, 0x74, 0x18, 0x79, 0x20, 0x94, 0x37, 0x06, 0x00, 0xe0, 0x96, 0xb1, 0x56, 0x64, 0xe1, 0x88, 0x04, 0x02, 0x00, 0x74, 0x69, 0x77, 0x22, 0x9b, 0xb9,
    0x49, 0xbf, 0x7d, 0x6d, 0x7c, 0x73, 0x15, 0x88, 0x18, 0x1e, 0x00, 0x50, 0xe1, 0x91, 0x93, 0x55, 0x77, 0x03, 0xb1, 0x00, 0x00, 0x5a, 0x2a, 0x97, 0x3e, 0x2e, 0xaf, 0x02, 0x3d, 0x3b, 0x54, 0x8a,
    0x5c, 0x55, 0x60, 0x32, 0x42, 0x0f, 0xcf, 0x81, 0x83, 0x11, 0xd2, 0xf3, 0x65, 0xb5, 0x02, 0x0f, 0x0c, 0x27, 0x24, 0x80, 0x13, 0x8e, 0x73, 0x56, 0x0f, 0x0f, 0x0f, 0x73, 0x50, 0x5e, 0x82, 0x20,
    0x6d, 0x83, 0x28, 0x0f, 0x9f, 0x20, 0x37, 0x22, 0x02, 0x14, 0x39, 0x45, 0xfb, 0xff, 0xff, 0xff, 0xff, 0xff, 0xff, 0xff, 0x0f, 0x20, 0x13, 0xc0, 0x01, 0x00, 0x3e, 0xb2, 0x0c, 0xa4, 0x04, 0x4c,
    0x1b, 0x2d, 0x00, 0x00, 0x00, 0xfc, 0x7f, 0xe3, 0x00, 0x01, 0xb1, 0x03, 0xd7, 0xf0, 0x3c, 0x80, 0xb5, 0x3d, 0x2a, 0x0d, 0x09, 0x4d, 0x04, 0x31, 0x00, 0xf0, 0x01, 0x00, 0xf8, 0x43, 0x89, 0x06,
    0x4b, 0x22, 0x23, 0x80, 0xb3, 0x16, 0x00, 0x00, 0x00, 0x14, 0x82, 0xe2, 0x18, 0x42, 0x5c, 0xea, 0x00, 0x00, 0x06, 0x00, 0x38, 0xff, 0x3f, 0x6a, 0xfc, 0xff, 0xff, 0xff, 0xff, 0xff, 0xff, 0xff,
    0xfc, 0x01, 0x00, 0x00, 0x00, 0xc7, 0x25, 0x21, 0x43, 0x26, 0xca, 0x0b, 0x00, 0x00, 0x00, 0xc7, 0x25, 0x21, 0x43, 0x26, 0x82, 0x0a, 0x00, 0x00, 0x00, 0xc7, 0x25, 0x21, 0x43, 0x26, 0xdc, 0xfe,
    0xff, 0xff, 0xff, 0xc7, 0x25, 0x21, 0x43, 0x26, 0x05, 0x07, 0x00, 0x00, 0x00, 0xc7, 0x25, 0x21, 0x43, 0x26, 0x00, 0x00, 0x00, 0x00, 0x00, 0x00, 0x00, 0x00, 0x00, 0x00, 0x00, 0x00, 0x00, 0x00,
    0x80, 0x01, 0x50, 0xf3, 0x2d, 0x6d, 0x3c, 0x98, 0x56, 0x06, 0xf3, 0xaf, 0x8c, 0x7c, 0x8c, 0x6b, 0x5b, 0x3b, 0xeb, 0x5a, 0x0a, 0x2a, 0xf9, 0xb8, 0xa8, 0x98, 0x18, 0x08, 0xd8, 0x87, 0x77, 0x47,
    0x17, 0xe7, 0x76, 0x16, 0xd6, 0xeb, 0x00, 0xc0, 0x01, 0x19, 0xaf, 0x0c, 0x92, 0xc4, 0x12, 0xf1, 0x07, 0x00, 0xe6, 0x19, 0x00, 0x05, 0x31, 0xe3, 0xb6, 0x00, 0xb0, 0xe5, 0x53, 0xee, 0xc8, 0x73,
    0x0c, 0xfd, 0x6a, 0x5a, 0xfe, 0xfd, 0x80, 0xff, 0x26, 0x51, 0xa1, 0xe0, 0xc6, 0xbb, 0xff, 0x17, 0xe0, 0x0e, 0xd2, 0xe7, 0xe7, 0xe7, 0xe7, 0x07, 0x80, 0x01, 0x00, 0x08, 0x00, 0xfc, 0xff, 0xef,
    0x81, 0xff, 0xff, 0xff, 0xff, 0xff, 0xff, 0xff, 0xff, 0xff, 0xff, 0xff, 0xff, 0xff, 0xff, 0xff, 0xd1, 0x08, 0x00, 0x00, 0x00, 0xda, 0x72, 0x37, 0x44, 0x2b, 0xc7, 0xf6, 0xff, 0xff, 0xff, 0xda,
    0x72, 0x37, 0x44, 0x2b, 0x92, 0xff, 0xff, 0xff, 0xff, 0xda, 0x72, 0x37, 0x44, 0x2b, 0x00, 0x00, 0x28, 0x08, 0x5c, 0x01, 0x0c, 0x00, 0x49, 0x3e, 0x93, 0x13, 0x57, 0xab, 0xa7, 0x9d, 0x00, 0xe0,
    0xf3, 0x43, 0xb7, 0x80, 0x26, 0x69, 0x88, 0xfb, 0xff, 0x63, 0x0c, 0x57, 0x0c, 0x53, 0x41, 0x5d, 0x7d, 0xff, 0xcf, 0x71, 0x77, 0x85, 0x12, 0xd6, 0x31, 0x12, 0xf8, 0xff, 0x0f, 0x00, 0x00, 0x25,
    0xa6, 0xa0, 0x65, 0x5a, 0x16, 0x46, 0x9e, 0xf0, 0x7f, 0x10, 0x1a, 0x71, 0x31, 0x03, 0x31, 0xd3, 0xf5, 0xff, 0x7d, 0xa3, 0x26, 0x61, 0x53, 0x38, 0x95, 0x21, 0xff, 0xff, 0x0f, 0x00, 0x00, 0xf0,
    0x80, 0xcc, 0x04, 0x80, 0x8a, 0x77, 0x6a, 0x1c, 0xff, 0xdf, 0x9a, 0x4b, 0xb1, 0x38, 0x36, 0x10, 0x57, 0xf2, 0xff, 0x63, 0xa7, 0x41, 0x99, 0x0c, 0x5b, 0x5b, 0x2e, 0xff, 0x0f, 0x00, 0x00, 0xc0,
    0xa7, 0x8a, 0x89, 0xcc, 0xe1, 0x69, 0x55, 0xf3, 0xff, 0x19, 0x47, 0x77, 0xa7, 0x26, 0x7d, 0x5d, 0x0b, 0xff, 0xdf, 0xf9, 0xd1, 0x75, 0x99, 0x96, 0x98, 0x71, 0xf6, 0xff, 0x0f, 0x00, 0x00, 0x88,
    0x17, 0x88, 0xc0, 0xc8, 0x9e, 0x24, 0xbe, 0xf0, 0x5f, 0x81, 0x50, 0x30, 0x34, 0x58, 0x79, 0x91, 0xf9, 0xff, 0x3b, 0x24, 0x55, 0x13, 0x65, 0xc1, 0x83, 0xbf, 0xff, 0xff, 0x0f, 0x00, 0x00, 0xf0,
    0x7a, 0x6d, 0xa0, 0x00, 0x72, 0xbc, 0xd0, 0xa8, 0xff, 0x1f, 0xc3, 0x12, 0x76, 0xb0, 0x34, 0xb5, 0x37, 0xf8, 0xff, 0x13, 0x7f, 0x37, 0x28, 0x89, 0x26, 0x0b, 0xdb, 0xff, 0x0f, 0x00, 0x00, 0xd0,
    0x61, 0x0d, 0x58, 0x63, 0xb5, 0x61, 0xe2, 0xfe, 0xff, 0x17, 0xa5, 0x69, 0x13, 0x71, 0x01, 0x51, 0x67, 0xff, 0xff, 0x75, 0xd8, 0x76, 0x60, 0x51, 0x65, 0x80, 0xf8, 0xff, 0x4f, 0x00, 0x00, 0xb2,
    0x25, 0x90, 0x4a, 0x5f, 0x56, 0x0a, 0xa3, 0xf0, 0xdf, 0xdc, 0x50, 0xfa, 0x45, 0x31, 0x12, 0x90, 0xf2, 0xff, 0x6f, 0x4f, 0x73, 0x23, 0x67, 0x33, 0x3a, 0x50, 0xff, 0xff, 0x0f, 0x00, 0x01, 0xf0,
    0x86, 0x80, 0x9c, 0x76, 0x7c, 0x5b, 0x19, 0xb5, 0xff, 0x3f, 0x7a, 0xfd, 0x71, 0x1b, 0xb6, 0xf0, 0x34, 0xf2, 0xff, 0x2b, 0x37, 0x05, 0x5f, 0x18, 0x4d, 0x8e, 0x0a, 0xff, 0x0f, 0x00, 0x00, 0x20,
    0xe2, 0x45, 0x07, 0xdc, 0x60, 0x3b, 0x72, 0xf0, 0xff, 0x33, 0x7b, 0xcd, 0xc9, 0x22, 0x8b, 0x0f, 0x4a, 0xff, 0xbf, 0x75, 0xd0, 0xb2, 0x96, 0xd2, 0xe4, 0xf7, 0xf7, 0xff, 0x0f, 0x00, 0x00, 0x6c,
    0x24, 0x2c, 0x4c, 0x8e, 0x92, 0x4d, 0x05, 0xf0, 0x5f, 0x74, 0x92, 0x14, 0xd5, 0xd9, 0xf8, 0xff, 0xff, 0xff, 0x0f, 0x60, 0x54, 0x14, 0x2d, 0x07, 0x80, 0xca, 0xb6, 0x6f, 0x9e, 0x3b, 0xf8, 0x1a,
    0x6d, 0x07, 0x6c, 0x0b, 0x80, 0x57, 0x28, 0x83, 0x0d, 0x7a, 0xd2, 0x5c, 0x7e, 0x53, 0x96, 0x63, 0xf3, 0xd9, 0xff, 0xef, 0xe3, 0x7f, 0x0d, 0x35, 0x8c, 0xfe, 0x9f, 0x41, 0xc2, 0x07, 0xfb, 0xff,
    0x03, 0xd8, 0x76, 0x00, 0xb0, 0xcf, 0x77, 0x5b, 0x6a, 0x92, 0xbc, 0x4d, 0x16, 0xff, 0xe3, 0x23, 0x5f, 0x81, 0x3b, 0xfd, 0xff, 0x09, 0x87, 0x8b, 0x16, 0x90, 0xfb, 0xff, 0x3f, 0x78, 0x2a, 0x00,
    0xd0, 0xbf, 0x1b, 0xe0, 0xf7, 0x67, 0xda, 0x03, 0x08, 0xba, 0xb7, 0x2d, 0xc6, 0x7d, 0xef, 0xe8, 0xfc, 0x3f, 0xd8, 0xd2, 0x53, 0x24, 0xa2, 0xf8, 0xff, 0x98, 0x89, 0xc0, 0x07, 0x82, 0x9c, 0xfe,
    0xff, 0x03, 0x80, 0xbb, 0x03, 0x40, 0xf5, 0x3b, 0xb5, 0xf1, 0x77, 0xae, 0x9a, 0x6f, 0xf9, 0xff, 0xa3, 0x3e, 0x58, 0x90, 0xe1, 0x73, 0xff, 0xff, 0x71, 0x06, 0x9b, 0x6f, 0x01, 0xfc, 0xff, 0x01,
    0xf8, 0x3c, 0x00, 0x48, 0x7d, 0x34, 0xfc, 0xef, 0x68, 0xfd, 0xc1, 0x2a, 0xfd, 0x9c, 0xf7, 0xff, 0x4b, 0x0c, 0x21, 0x63, 0x00, 0xc9, 0xfb, 0x7f, 0xb6, 0x63, 0x62, 0xcb, 0x2a, 0xff, 0x07, 0x00,
    0xf0, 0xb6, 0xdc, 0xba, 0x11, 0xf0, 0x4b, 0xa2, 0xf4, 0x40, 0x6f, 0xfa, 0xff, 0x5c, 0x81, 0x36, 0x1c, 0x7a, 0xf2, 0xff, 0xff, 0x07, 0xe2, 0x01, 0x70, 0xf3, 0x0d, 0x90, 0xef, 0x09, 0xa8, 0x0e,
    0x67, 0xdc, 0x7f, 0x3d, 0x59, 0x03, 0x4d, 0x6f, 0x9b, 0xfe, 0x9f, 0x75, 0x25, 0xae, 0x1c, 0x0c, 0xfd, 0xff, 0x1e, 0x0c, 0x32, 0x6c, 0x65, 0xe1, 0xff, 0x0f, 0xe0, 0xda, 0x01, 0xa0, 0x3f, 0xdf,
    0x6e, 0x9e, 0x35, 0xb7, 0x09, 0xe3, 0x3f, 0x8f, 0xf2, 0x35, 0x45, 0xe7, 0xff, 0x8b, 0x27, 0x0f, 0xa1, 0x9a, 0x8b, 0xff, 0xff, 0x03, 0x75, 0x07, 0x00, 0xb6, 0x7e, 0x07, 0xfc, 0xdb, 0x01, 0xd4,
    0x04, 0x64, 0x15, 0x24, 0xea, 0xff, 0x6f, 0xcc, 0x72, 0xff, 0xbf, 0x51, 0x0c, 0xa0, 0x6f, 0x62, 0xfc, 0x1f, 0x00, 0xcc, 0x3d, 0xa6, 0xfb, 0x03, 0x42, 0xd7, 0xf3, 0xc5, 0xa3, 0x29, 0x82, 0xff,
    0x08, 0xff, 0xff, 0xd5, 0x7f, 0x9e, 0xf3, 0xff, 0xb1, 0x38, 0x25, 0xb4, 0x05, 0xff, 0x7f, 0x00, 0x94, 0x89, 0x01, 0xe0, 0x58, 0xed, 0x36, 0x73, 0x42, 0xdd, 0x6e, 0xbf, 0xad, 0x8c, 0xf8, 0x1f,
    0x43, 0x01, 0xff, 0xfc, 0x7f, 0xa9, 0x60, 0x79, 0xc4, 0x64, 0xc2, 0xff, 0xff, 0x07, 0xb2, 0x0d, 0x00, 0xe3, 0xce, 0x07, 0xfc, 0xdf, 0xc2, 0x56, 0x10, 0x92, 0x31, 0xec, 0x31, 0x85, 0xa4, 0xab,
    0xbe, 0xff, 0x3f, 0x89, 0x8c, 0x32, 0x10, 0xa1, 0x0e, 0xf4, 0xff, 0xdc, 0xec, 0xe1, 0x8c, 0x3a, 0xa8, 0xfd, 0x1f, 0x00, 0xac, 0x3b, 0x00, 0xfa, 0xf3, 0xb5, 0xcd, 0xb7, 0x6f, 0xcf, 0xdd, 0xfe,
    0xff, 0xb0, 0xd6, 0x5b, 0xa2, 0x82, 0xf9, 0xff, 0xe2, 0x08, 0x4c, 0xbe, 0x61, 0xe4, 0xff, 0x1f, 0xc0, 0x79, 0x05, 0xc0, 0xfd, 0x73, 0xf0, 0xbf, 0xcf, 0xf9, 0xe9, 0xda, 0xa7, 0x89, 0xff, 0x9f,
    0x5e, 0xf1, 0xe1, 0xe7, 0xff, 0xe5, 0xb7, 0xdd, 0xd1, 0x34, 0x4f, 0xfe, 0x03, 0x10, 0xf8, 0xbd, 0xd8, 0xfe, 0x0f, 0xf0, 0xdb, 0x26, 0x98, 0x0c, 0x2c, 0x53, 0xa1, 0xff, 0xff, 0x21, 0xc5, 0x5a,
    0xdc, 0xff, 0x1f, 0x93, 0x0a, 0xfd, 0x48, 0x92, 0xf0, 0x7f, 0x04, 0xe0, 0xd9, 0x00, 0xc8, 0x5f, 0xbf, 0xcf, 0xc9, 0x11, 0xa8, 0xe4, 0x57, 0xf9, 0xff, 0x54, 0xd0, 0x6b, 0xd4, 0xff, 0x7f, 0x29,
    0x14, 0x68, 0x0a, 0xf0, 0xff, 0x7f, 0x00, 0xfb, 0x06, 0x00, 0x27, 0xed, 0xf6, 0x1d, 0x18, 0x41, 0xd6, 0x35, 0x75, 0x82, 0xff, 0x2f, 0xfb, 0x2b, 0xd5, 0xf0, 0xfd, 0x7f, 0xf6, 0x32, 0x25, 0xea,
    0xab, 0xfe, 0xbf, 0x7f, 0xce, 0x13, 0x30, 0xe4, 0x0f, 0x8a, 0x0d, 0x00, 0xfc, 0xcd, 0x06, 0xfc, 0x7f, 0x94, 0xb8, 0x19, 0x37, 0x0a, 0xf9, 0xe8, 0xd5, 0xd7, 0xff, 0xcf, 0xc8, 0xa5, 0x50, 0xe9,
    0x3c, 0xe0, 0xff, 0xff, 0x0f, 0x00, 0xb8, 0xcf, 0xf2, 0xb7, 0x01, 0x70, 0x7e, 0x29, 0xb8, 0xe2, 0x1e, 0xd8, 0xee, 0xbb, 0x31, 0xc6, 0xd8, 0x86, 0xfc, 0xff, 0xea, 0xb5, 0xf8, 0x55, 0x19, 0xff,
    0x5f, 0x68, 0x47, 0xed, 0x40, 0x50, 0xe8, 0xff, 0x1f, 0x60, 0xfd, 0x03, 0xc0, 0x99, 0x77, 0x87, 0xff, 0xfe, 0x3d, 0x18, 0xb0, 0x13, 0x54, 0xff, 0x7f, 0xe0, 0xaf, 0x37, 0xff, 0x9f, 0x17, 0x36,
    0xa2, 0x11, 0x2f, 0xe9, 0x96, 0xfe, 0x00, 0x00, 0x96, 0x8b, 0x7f, 0x3f, 0x80, 0x6f, 0xcd, 0x8a, 0x4c, 0xd2, 0x7a, 0x76, 0xf5, 0xff, 0x50, 0xf8, 0x4a, 0x2b, 0x7a, 0xfc, 0xbf, 0x75, 0xa4, 0xa7,
    0xa1, 0xc4, 0x27, 0xff, 0x07, 0x00, 0x75, 0x07, 0x80, 0xfc, 0x76, 0x73, 0x17, 0xd3, 0xd0, 0x77, 0x4f, 0xff, 0xff, 0x0d, 0xe1, 0x30, 0xe1, 0xc4, 0xff, 0x2f, 0x82, 0x1e, 0x86, 0x2f, 0x0a, 0xfe,
    0xff, 0x20, 0xa6, 0x1f, 0x00, 0xa4, 0x6e, 0xf7, 0x3b, 0x67, 0xa0, 0xd4, 0xf7, 0x66, 0x48, 0xc0, 0xff, 0xe7, 0x3f, 0x33, 0xfd, 0x3f, 0x87, 0x0c, 0x5e, 0x71, 0x2a, 0xee, 0xff, 0xff, 0x07, 0x7e,
    0x2d, 0x00, 0xd5, 0xdc, 0x0f, 0xf0, 0xbd, 0x15, 0x01, 0x14, 0x26, 0xf9, 0x7a, 0xfe, 0xff, 0xc8, 0xfe, 0x3b, 0x7a, 0xfe, 0xff, 0xd8, 0x59, 0xe0, 0x61, 0x8e, 0xff, 0x07, 0x00, 0xb5, 0xe7, 0xea,
    0x75, 0x00, 0x6c, 0xdb, 0x86, 0x03, 0x42, 0x40, 0xb6, 0x53, 0xaf, 0xae, 0x1e, 0xac, 0x81, 0x5f, 0xfe, 0x9f, 0x1c, 0x5f, 0x3a, 0x2a, 0xb1, 0xff, 0xff, 0x30, 0x05, 0xf8, 0x0e, 0x6b, 0xff, 0x7f,
    0x00, 0xf2, 0x0a, 0x00, 0xf7, 0x74, 0xc4, 0xff, 0x47, 0x5a, 0x39, 0xa3, 0x9d, 0xd6, 0xff, 0x67, 0x4d, 0x36, 0xd6, 0x1b, 0xd3, 0xfd, 0xbf, 0x98, 0x50, 0x42, 0xdb, 0x5c, 0xfc, 0x03, 0x00, 0xd0,
    0x4d, 0x7f, 0xbf, 0x03, 0xfe, 0x1a, 0x83, 0xca, 0x90, 0xfa, 0x68, 0xfd, 0x3f, 0x5a, 0x32, 0x1b, 0xc0, 0xc4, 0xff, 0xd7, 0x27, 0x0f, 0xb9, 0x3b, 0xd0, 0xe4, 0xff, 0x00, 0xc0, 0x6c, 0x01, 0xb0,
    0xff, 0xef, 0xcd, 0x69, 0xa0, 0xdc, 0xf2, 0xf3, 0xe0, 0xff, 0xc3, 0x5e, 0x67, 0x4f, 0xff, 0xff, 0x04, 0xea, 0xec, 0xc2, 0x31, 0x0e, 0xca, 0xff, 0x3f, 0x80, 0xfe, 0x03, 0x80, 0xa5, 0xbd, 0xad,
    0x5f, 0x22, 0x7e, 0xd4, 0xf3, 0x11, 0xfc, 0x1f, 0xf9, 0x3a, 0x35, 0xfc, 0x3f, 0x29, 0x32, 0x4a, 0xe2, 0x0b, 0xf8, 0xff, 0x3f, 0xa0, 0x54, 0x00, 0xe8, 0x6e, 0xda, 0xaf, 0x3a, 0xe8, 0xc4, 0x0d,
    0xdc, 0x4e, 0xc0, 0xff, 0xe5, 0x83, 0x04, 0xfe, 0x44, 0xeb, 0xff, 0xcf, 0xf9, 0x71, 0x87, 0xff, 0xe7, 0x97, 0x5e, 0xb6, 0x2d, 0x65, 0xff, 0x07, 0x00, 0xbb, 0x8b, 0xfe, 0xa6, 0x01, 0xb0, 0x7f,
    0x4a, 0x8f, 0xb5, 0x0b, 0x66, 0xf4, 0xff, 0xb8, 0x89, 0x9d, 0xe7, 0xff, 0x4f, 0x77, 0xf7, 0x34, 0x2d, 0x65, 0xf3, 0xff, 0x07, 0x90, 0xfe, 0x10, 0x10, 0xbb, 0xfd, 0x3d, 0xd7, 0x91, 0x3a, 0x7f,
    0x02, 0x9b, 0xe3, 0xbf, 0xa4, 0xe2, 0x50, 0xec, 0xff, 0x0f, 0x2e, 0x56, 0x3a, 0x95, 0x88, 0xf3, 0xff, 0x7f, 0x60, 0x27, 0x00, 0x70, 0xf7, 0xfb, 0x7a, 0xc1, 0x12, 0xd2, 0xc4, 0xf6, 0x57, 0xc0,
    0xaf, 0x5c, 0x4a, 0x6d, 0xb9, 0x61, 0xff, 0x3f, 0xc7, 0xbd, 0x31, 0x6c, 0xe5, 0xff, 0x0f, 0x5a, 0x24, 0x82, 0x05, 0xfc, 0x1f, 0x10, 0xd8, 0x37, 0x00, 0xd6, 0xf6, 0xcd, 0x7e, 0xa9, 0x30, 0x7b,
    0x67, 0x6a, 0xff, 0x5f, 0x17, 0xc2, 0xf9, 0xfc, 0xff, 0xbb, 0xc8, 0x24, 0xa1, 0x28, 0xfe, 0xff, 0x00, 0x56, 0xb6, 0x7a, 0x6f, 0x00, 0xe0, 0x7a, 0xec, 0x8a, 0x66, 0x66, 0xb8, 0x1f, 0xf1, 0xff,
    0x86, 0x74, 0x12, 0x55, 0xca, 0xa5, 0xff, 0xb7, 0xdf, 0x28, 0x67, 0xf8, 0xf8, 0xff, 0xe2, 0xd9, 0xb1, 0xe1, 0x7c, 0x7f, 0x00, 0x00, 0x99, 0xed, 0xdf, 0x7d, 0xc0, 0x77, 0x55, 0x07, 0x44, 0x40,
    0x90, 0xda, 0xff, 0x3f, 0x07, 0x5f, 0xb7, 0xbd, 0xff, 0x7f, 0x51, 0x06, 0x94, 0xf5, 0xfd, 0x3f, 0x00, 0x38, 0x49, 0xf7, 0xdf, 0x00, 0xb0, 0x79, 0x8b, 0x15, 0x3d, 0x09, 0xee, 0xcd, 0xff, 0x16,
    0x0b, 0x59, 0xa5, 0xad, 0xff, 0x7f, 0x9a, 0xb4, 0x26, 0xde, 0xff, 0xbf, 0xb5, 0x27, 0x6b, 0xea, 0xff, 0x0f, 0xe0, 0xb6, 0x01, 0xc0, 0xe5, 0xef, 0xe8, 0x17, 0x4a, 0x1e, 0x90, 0xfb, 0xcb, 0xe3,
    0xff, 0xb2, 0x5f, 0xc2, 0xe8, 0x82, 0xfb, 0xff, 0xb6, 0x3c, 0xed, 0x3d, 0x28, 0xff, 0x5f, 0xc2, 0x5c, 0xed, 0x27, 0x41, 0xff, 0x00, 0x00, 0xda, 0x9e, 0xb6, 0x1d, 0x03, 0x7e, 0x91, 0x5f, 0x7d,
    0xc1, 0x7c, 0x18, 0xfa, 0xff, 0x7e, 0x27, 0xff, 0x04, 0x14, 0xa0, 0xfe, 0x3f, 0xb7, 0xf7, 0xb6, 0x21, 0x9f, 0xfd, 0x1f, 0x00, 0x58, 0x3b, 0x00, 0x3a, 0x36, 0xdd, 0xd1, 0xe2, 0xc2, 0x83, 0x1c,
    0x71, 0x2d, 0xfe, 0xbf, 0x0e, 0x97, 0x10, 0x03, 0x04, 0xfa, 0xff, 0x96, 0xed, 0x3f, 0x48, 0x89, 0xff, 0xbf, 0x80, 0xbd, 0x03, 0x80, 0x56, 0x5f, 0x88, 0xff, 0x22, 0x6b, 0x52, 0xc6, 0x1d, 0xfd,
    0xff, 0x5e, 0x63, 0x05, 0x92, 0xe6, 0x95, 0xff, 0xff, 0x47, 0x4b, 0x0d, 0x00, 0xed, 0xfb, 0x07, 0x7c, 0xad, 0x8a, 0xab, 0x43, 0xc7, 0x8d, 0x83, 0xa4, 0x36, 0xd5, 0x0b, 0xfb, 0xff, 0xbc, 0xd9,
    0xcf, 0xcd, 0x22, 0x95, 0xea, 0xff, 0xff, 0x1f, 0x00, 0x6c, 0xd0, 0x6e, 0x73, 0x00, 0xfc, 0xd5, 0x04, 0x34, 0x0d, 0x7e, 0x77, 0xa6, 0x2c, 0xfe, 0x8e, 0xee, 0xff, 0x5f, 0x45, 0xae, 0xcf, 0x6f,
    0xa3, 0xff, 0xff, 0xff, 0x03, 0x80, 0xcb, 0x7e, 0xf7, 0x00, 0x20, 0x2f, 0x02, 0x4e, 0x10, 0x8c, 0xd3, 0x8e, 0xe2, 0x7f, 0x53, 0xdc, 0x96, 0x6e, 0x64, 0xfc, 0xff, 0xc7, 0xb6, 0xf4, 0x79, 0xf6,
    0x05, 0xfe, 0xff, 0x61, 0x75, 0x4e, 0x0f, 0x0f, 0xf9, 0x03, 0x00, 0xd0, 0xd6, 0xf5, 0xbf, 0x01, 0x7e, 0x1b, 0xc4, 0x0f, 0xda, 0x47, 0x62, 0x82, 0xff, 0xff, 0xca, 0xef, 0xc3, 0x9d, 0xfe, 0x1f,
    0xd0, 0xea, 0x7d, 0xd9, 0x16, 0xff, 0x5f, 0x00, 0x98, 0x2d, 0x00, 0xbe, 0x6b, 0xc0, 0x95, 0x9d, 0x7d, 0x49, 0x24, 0xf9, 0xff, 0xfe, 0x51, 0xce, 0xfa, 0x4b, 0xd0, 0xff, 0x8f, 0x87, 0xd3, 0x61,
    0x0d, 0x90, 0xec, 0xff, 0x0f, 0x08, 0x00, 0xee, 0xfc, 0x5f, 0x51, 0xe3, 0xbf, 0xb9, 0xe2, 0xcd, 0xbc, 0xff, 0xff, 0xac, 0x82, 0x2f, 0xfe, 0xd4, 0xbc, 0xc9, 0xff, 0x57, 0x7e, 0x0c, 0x90, 0xc6,
    0xfe, 0x01, 0x20, 0x74, 0x37, 0xff, 0x56, 0x00, 0x7c, 0x6f, 0x43, 0x8e, 0x2d, 0xa9, 0xff, 0xff, 0xac, 0x32, 0x0d, 0xd4, 0xbd, 0xf9, 0xff, 0xfe, 0x12, 0x28, 0x96, 0x90, 0xff, 0x03, 0x80, 0xea,
    0xba, 0xfb, 0x1f, 0x00, 0xd6, 0x0e, 0x14, 0x1b, 0x2e, 0xbb, 0xea, 0x28, 0x96, 0xfb, 0xcf, 0xff, 0xd7, 0xf2, 0xc6, 0x3d, 0x31, 0xff, 0xff, 0xff, 0xff, 0x03, 0xd8, 0x37, 0xf0, 0xb7, 0x07, 0x00,
    0x95, 0x33, 0x9c, 0xbe, 0x08, 0x8d, 0x7e, 0x1d, 0xff, 0xb7, 0x60, 0x0d, 0xfc, 0x54, 0xd3, 0x77, 0xfe, 0x3f, 0xeb, 0xf8, 0xe7, 0x6b, 0xbf, 0xfd, 0x7f, 0x18, 0x63, 0x02, 0x1e, 0xff, 0x00, 0x00,
    0xea, 0xdf, 0xc4, 0xba, 0x05, 0x7c, 0x17, 0x54, 0xa1, 0x3f, 0xff, 0x7b, 0x77, 0xfb, 0x7f, 0xd5, 0xd4, 0xdf, 0x04, 0x03, 0x85, 0xff, 0x3f, 0x7d, 0x37, 0xac, 0x8d, 0xfd, 0x3f, 0x00, 0xc8, 0x6c,
    0x00, 0xfc, 0xf7, 0x9a, 0x1d, 0x35, 0x44, 0x17, 0xc3, 0xfd, 0xff, 0xb1, 0x86, 0xd4, 0x60, 0xc5, 0xff, 0x3f, 0xd7, 0xaa, 0x69, 0xec, 0x69, 0xff, 0xff, 0x00, 0x56, 0x0e, 0x00, 0xbe, 0xfe, 0x67,
    0x1b, 0x92, 0xd2, 0x0a, 0x77, 0xc3, 0xf8, 0x7f, 0x6f, 0x7f, 0xc7, 0x82, 0xc1, 0xfe, 0xff, 0xd9, 0x74, 0xf1, 0x5f, 0xe2, 0xff, 0x8b, 0xdf, 0x02, 0xc2, 0xa0, 0xf4, 0x1f, 0x00, 0x80, 0x69, 0x3f,
    0xfb, 0x1d, 0xf0, 0x6f, 0x27, 0x4e, 0xeb, 0xb4, 0x03, 0x65, 0xfc, 0x7f, 0xb5, 0xf1, 0xd3, 0xff, 0x8f, 0xd2, 0x72, 0x0d, 0x0f, 0x4d, 0xfb, 0x7f, 0x00, 0xa0, 0x6e, 0x35, 0xf7, 0x07, 0xc0, 0xb4,
    0x81, 0x26, 0x89, 0x2a, 0x76, 0xc3, 0xec, 0xff, 0x2b, 0x4c, 0x62, 0xe6, 0xf7, 0xff, 0x65, 0x07, 0x38, 0xb3, 0x24, 0xe7, 0xff, 0x0f, 0x40, 0xa4, 0x01, 0x20, 0x6f, 0x1a, 0x9f, 0xbb, 0x20, 0x78,
    0x30, 0xba, 0x0d, 0x28, 0xfe, 0x63, 0x7d, 0xe4, 0xe6, 0x3b, 0xfe, 0x1f, 0xb0, 0x8b, 0xdd, 0x63, 0x5c, 0x70, 0xf9, 0xff, 0x7f, 0x00, 0xfe, 0x00, 0xb0, 0xf9, 0x06, 0xc0, 0x5f, 0x13, 0x6e, 0xb8,
    0x1a, 0x37, 0x34, 0xd5, 0xff, 0x07, 0x29, 0x8a, 0xb0, 0xa1, 0xfd, 0x7f, 0x61, 0x01, 0x07, 0x5b, 0x30, 0xab, 0xd3, 0xff, 0x01, 0x80, 0xfb, 0x03, 0x20, 0xdb, 0xdd, 0xd0, 0xdd, 0x55, 0xf2, 0xec,
    0xa3, 0xfd, 0xff, 0x80, 0x6d, 0xda, 0x1b, 0x8e, 0xa1, 0xff, 0xff, 0xd8, 0x0c, 0x0d, 0x4c, 0x81, 0xc4, 0x8a, 0xff, 0x3f, 0x00, 0xff, 0x06, 0x80, 0xe9, 0xff, 0x0c, 0xff, 0xcd, 0xa8, 0x2f, 0xde,
    0x9b, 0xd2, 0xff, 0x97, 0x6a, 0x2c, 0x2d, 0xac, 0x51, 0xfe, 0x5f, 0x37, 0x10, 0xda, 0xf4, 0xce, 0x99, 0x3f, 0x00, 0x84, 0x14, 0xff, 0xfe, 0x08, 0xf0, 0x37, 0x70, 0x61, 0x95, 0xdc, 0xad, 0xf2,
    0xff, 0x0f, 0x89, 0xfd, 0xdc, 0xb8, 0xc5, 0xfd, 0x7f, 0x34, 0x06, 0xc4, 0x83, 0xec, 0x81, 0xc2, 0xff, 0x01, 0xc0, 0xdd, 0x00, 0xe0, 0x24, 0x40, 0xfe, 0x7f, 0x09, 0xd0, 0x4a, 0x5f, 0x21, 0xff,
    0x1f, 0xd5, 0x92, 0xc0, 0x7f, 0x06, 0xbb, 0xff, 0xff, 0x03, 0x80, 0x6f, 0x00, 0x58, 0x6b, 0x9e, 0xc5, 0x37, 0x7e, 0xe6, 0xb7, 0xf8, 0x9f, 0x6e, 0x19, 0x9b, 0x0e, 0xcf, 0x6d, 0xf2, 0xff, 0xc1,
    0xff, 0xff, 0xa2, 0x32, 0x0f, 0x42, 0x60, 0x3e, 0xfe, 0x41, 0x00, 0xfc, 0x3b, 0xe0, 0x6b, 0x2d, 0x29, 0x3a, 0x9c, 0xf8, 0xcb, 0xfc, 0xff, 0xae, 0x8c, 0x49, 0x91, 0x20, 0xfa, 0xff, 0xff, 0x97,
    0xc5, 0x00, 0xa1, 0xd9, 0x3e, 0x00, 0xfa, 0x14, 0xba, 0xe9, 0xe5, 0x78, 0x1a, 0x85, 0xf9, 0xff, 0x05, 0x95, 0xb8, 0x46, 0xf8, 0xff, 0xa1, 0xb2, 0x51, 0x32, 0xd1, 0xfa, 0xfe, 0xff, 0x00, 0x6c,
    0x15, 0x00, 0xf8, 0xcc, 0xde, 0xaf, 0x0c, 0x28, 0xaf, 0x8c, 0x17, 0xe0, 0xff, 0x3c, 0x7e, 0xcd, 0xb8, 0xff, 0x7f, 0xf6, 0x93, 0x01, 0x6c, 0x22, 0xfc, 0xff, 0x1f, 0xa4, 0x32, 0x00, 0x54, 0xde,
    0x05, 0xf8, 0xab, 0x29, 0x58, 0x11, 0x18, 0x2f, 0xb2, 0x42, 0xff, 0x3f, 0xd9, 0x7a, 0x40, 0x03, 0xe3, 0xff, 0x3b, 0x7b, 0x28, 0x32, 0x34, 0x9c, 0xff, 0x3f, 0x10, 0x10, 0xdd, 0x7e, 0xae, 0x01,
    0xf0, 0x37, 0xd1, 0x0b, 0xf0, 0x9b, 0xcb, 0x40, 0x92, 0x4c, 0x8b, 0xfd, 0x7f, 0x5e, 0x26, 0xc0, 0x00, 0x80, 0x38, 0xf1, 0xff, 0xff, 0xff, 0x00, 0x9e, 0x07, 0x00, 0x32, 0xf7, 0xf9, 0xbd, 0x74,
    0xb4, 0x02, 0x33, 0xe6, 0x74, 0xe1, 0xbf, 0xb4, 0xd7, 0x8f, 0x76, 0xf7, 0xff, 0xb1, 0xe6, 0x4a, 0x52, 0x66, 0x93, 0xcd, 0xff, 0x27, 0x91, 0x26, 0x60, 0x0d, 0xff, 0x03, 0x10, 0x98, 0x76, 0xbf,
    0xbb, 0x00, 0xfc, 0x9d, 0x48, 0x6d, 0xa6, 0xd4, 0x29, 0xff, 0xff, 0x4c, 0xbd, 0xa0, 0x09, 0xeb, 0xff, 0x55, 0x50, 0x37, 0x16, 0xac, 0xfe, 0x0f, 0x00, 0xfc, 0x0d, 0x00, 0xd7, 0xed, 0x6e, 0xfe,
    0x6c, 0x29, 0x1f, 0xfa, 0xab, 0xff, 0x3f, 0x78, 0xb3, 0xfb, 0xfd, 0xff, 0x0f, 0x66, 0x10, 0x1a, 0x16, 0xfc, 0xff, 0x03, 0xd8, 0xd8, 0xe6, 0x7e, 0x03, 0xc0, 0xd6, 0x85, 0xeb, 0x9f, 0x58, 0x12,
    0x3c, 0x8b, 0xff, 0x1d, 0x52, 0x6e, 0x93, 0xfb, 0xf6, 0xff, 0xb4, 0xbf, 0x3d, 0x2b, 0x1e, 0xf4, 0xff, 0xdf, 0x86, 0xa1, 0xad, 0xa6, 0x7f, 0x50, 0x3f, 0x02, 0xc0, 0xfe, 0xbd, 0x80, 0xbf, 0x8d,
    0x69, 0xb2, 0xc4, 0x1e, 0x4e, 0xfd, 0xff, 0x0f, 0xc3, 0x81, 0x81, 0x90, 0xff, 0x0f, 0xe6, 0xbe, 0xe5, 0x95, 0xf8, 0x3f, 0x00, 0xe8, 0xd9, 0xbd, 0x7f, 0x07, 0x40, 0xf5, 0x6b, 0x42, 0xb8, 0x96,
    0x7e, 0x68, 0x3b, 0xe5, 0x86, 0x49, 0xff, 0xff, 0xf1, 0x42, 0x29, 0x01, 0x51, 0xd1, 0xff, 0x67, 0xdf, 0x46, 0x83, 0x96, 0xfd, 0xff, 0x01, 0xdc, 0x36, 0x00, 0x78, 0xdb, 0x7e, 0xbf, 0xb1, 0x43,
    0x44, 0xad, 0x9c, 0xc6, 0xff, 0x23, 0xb8, 0x7f, 0x6f, 0xcb, 0xff, 0xaf, 0x06, 0x79, 0xf4, 0xa4, 0x4c, 0xff, 0x7f, 0x94, 0x8e, 0x3b, 0x00, 0xf2, 0x0f, 0x00, 0xe0, 0xb7, 0xef, 0x7b, 0x6f, 0xc0,
    0xb7, 0xde, 0x21, 0x96, 0x3b, 0xf1, 0x63, 0xe7, 0xc4, 0xb5, 0xdb, 0xff, 0xef, 0x6a, 0x36, 0x5a, 0x74, 0x2c, 0xff, 0x2f, 0xec, 0x86, 0xdc, 0x8f, 0xff, 0x03, 0x80, 0x9c, 0x03, 0x40, 0x7f, 0x66,
    0xff, 0xed, 0x43, 0xb0, 0x17, 0xb2, 0xfa, 0xff, 0x18, 0xd1, 0xff, 0xe9, 0xff, 0x8f, 0x9a, 0x6f, 0xe8, 0x2e, 0x84, 0xfa, 0xff, 0x03, 0xd8, 0x79, 0x00, 0x28, 0xfe, 0x6f, 0xe6, 0xe1, 0xec, 0x5c,
    0xb3, 0x69, 0xfd, 0xf0, 0xbf, 0x67, 0x2f, 0xe5, 0x2c, 0x45, 0xdd, 0xff, 0xdf, 0xbb, 0xc8, 0x26, 0x5d, 0xff, 0x3f, 0x7d, 0x1b, 0x80, 0x83, 0x7f, 0x30, 0xe9, 0x00, 0xb0, 0xfb, 0x6d, 0xc0, 0xdf,
    0x8e, 0x55, 0x87, 0xfa, 0x1c, 0xe8, 0xf3, 0xff, 0x6f, 0xec, 0xa6, 0x3f, 0x77, 0xfd, 0x7f, 0x7c, 0x36, 0x38, 0x1d, 0x32, 0xfc, 0x1f, 0x45, 0x54, 0x65, 0x0c, 0x00, 0xa0, 0x7b, 0x01, 0x90, 0xf9,
    0xef, 0x6d, 0x43, 0xa3, 0x58, 0xe2, 0x7f, 0x7a, 0xfb, 0xff, 0x63, 0x7b, 0xe9, 0x7b, 0xf4, 0xff, 0xab, 0x83, 0x40, 0xaf, 0x6e, 0xff, 0x7f, 0x00, 0x59, 0x05, 0x00, 0x7e, 0xf9, 0x5f, 0xd7, 0x37,
    0x31, 0xc1, 0x97, 0x15, 0xe2, 0xff, 0x56, 0xf9, 0xa6, 0xe7, 0x2e, 0xff, 0x3f, 0x7a, 0x1f, 0x04, 0x63, 0x1b, 0xfa, 0x7f, 0x9d, 0xb5, 0x10, 0xc5, 0x7c, 0xf0, 0x07, 0x00, 0x70, 0xb7, 0x7b, 0xb9,
    0x08, 0xf0, 0x0b, 0x43, 0x31, 0x69, 0xbc, 0xfe, 0xff, 0x60, 0xf2, 0x73, 0x6b, 0x23, 0x83, 0x6e, 0xff, 0x4f, 0x9c, 0x83, 0x44, 0xd8, 0x0d, 0xc3, 0xff, 0x01, 0xc0, 0x66, 0x01, 0xe0, 0x7f, 0x5e,
    0x75, 0xee, 0x8f, 0xfb, 0xc3, 0xee, 0xff, 0x2f, 0x28, 0x1c, 0xd4, 0x54, 0x27, 0xff, 0x6f, 0xac, 0x9e, 0x1e, 0x00, 0x8a, 0xff, 0xff, 0x00, 0x64, 0x17, 0x00, 0xfe, 0xd9, 0xf5, 0xb2, 0xbf, 0xa6,
    0x72, 0xcc, 0xf8, 0x5f, 0xde, 0x31, 0x35, 0x28, 0xfc, 0xff, 0x6f, 0x71, 0x06, 0xb5, 0xee, 0xfe, 0xff, 0x9f, 0x48, 0x29, 0x00, 0x78, 0x9f, 0x03, 0xfc, 0x3d, 0x22, 0x34, 0x43, 0x23, 0x05, 0xf4,
    0xfc, 0xff, 0xb3, 0xad, 0x2e, 0xa2, 0xfd, 0xff, 0x8a, 0x26, 0x59, 0x5c, 0xba, 0xff, 0x03, 0x00, 0xdc, 0x96, 0x72, 0x3f, 0x00, 0xf6, 0xbe, 0xa8, 0x00, 0x2e, 0x55, 0xb4, 0xc7, 0xf1, 0xff, 0x70,
    0xfd, 0x27, 0x96, 0xff, 0x7f, 0x83, 0xdb, 0xc7, 0xe4, 0x4a, 0xec, 0xff, 0x0f, 0x62, 0xf9, 0x01, 0x40, 0x59, 0xed, 0x5f, 0x6d, 0xc3, 0x7b, 0x0c, 0xd1, 0x43, 0x0a, 0xfc, 0x47, 0x43, 0x71, 0xaf,
    0xf4, 0xff, 0xe6, 0x08, 0x6a, 0x02, 0x18, 0xec, 0xc3, 0xf2, 0xff, 0x7f, 0x20, 0x00, 0xb9, 0xef, 0xe7, 0xce, 0x01, 0xff, 0x54, 0x0a, 0x76, 0x14, 0x52, 0x30, 0xff, 0x5f, 0xbd, 0xfb, 0x5a, 0xd9,
    0xf9, 0x7f, 0x82, 0x99, 0x12, 0xce, 0x28, 0x25, 0xff, 0x0f, 0x00, 0x70, 0x1f, 0x00, 0xdb, 0xee, 0xf5, 0xde, 0x85, 0x3f, 0xbc, 0xbb, 0xb1, 0xfa, 0xff, 0xc5, 0x39, 0x46, 0x82, 0xff, 0x1f, 0x2e,
    0xaa, 0x1e, 0x70, 0x2e, 0xd7, 0xff, 0x1f, 0x40, 0x27, 0x0a, 0x40, 0xdd, 0xdd, 0x7f, 0x29, 0x16, 0x0b, 0x6f, 0xf0, 0x27, 0x1e, 0xff, 0xd7, 0xf7, 0x85, 0x22, 0xd1, 0xff, 0xaf, 0x82, 0x06, 0xff,
    0xc8, 0xf9, 0xff, 0xc0, 0xc7, 0x8f, 0x18, 0xc6, 0x30, 0xfd, 0x01, 0x00, 0xf5, 0x36, 0xe0, 0xcf, 0xff, 0xa7, 0xa6, 0x36, 0x93, 0x18, 0xe8, 0xe3, 0xff, 0xc3, 0x13, 0x86, 0x92, 0x68, 0xfc, 0xbf,
    0xdd, 0x7f, 0x50, 0x7a, 0x6d, 0x52, 0xff, 0x07, 0x00, 0xfd, 0x09, 0x80, 0xc6, 0xad, 0xea, 0x62, 0xfa, 0x34, 0xdb, 0xa0, 0x39, 0xff, 0x3f, 0x3c, 0x56, 0x2b, 0x19, 0x10, 0xe0, 0xff, 0xcb, 0x72,
    0x00, 0xe2, 0xa8, 0xc1, 0xff, 0x1f, 0x08, 0x00, 0xfc, 0x47, 0xf3, 0x7c, 0xc5, 0x7f, 0xa5, 0x7e, 0xc7, 0xbc, 0xe4, 0xff, 0x3f, 0x12, 0x85, 0x88, 0xa9, 0xd0, 0xff, 0xff, 0x01, 0xe1, 0x02, 0x40,
    0xfa, 0x77, 0xc0, 0x6f, 0x7b, 0x19, 0xaa, 0xaa, 0x12, 0x64, 0xec, 0xec, 0x83, 0xaa, 0x37, 0x92, 0xff, 0x7f, 0xdf, 0x86, 0x0e, 0x12, 0xf2, 0xf4, 0xff, 0xff, 0x6f, 0xb6, 0x01, 0x80, 0xb1, 0xfa,
    0x01, 0xd0, 0x1b, 0xb5, 0x54, 0xca, 0xe5, 0x23, 0x71, 0xe2, 0xeb, 0xa0, 0xfa, 0x47, 0x98, 0x9d, 0xff, 0x0f, 0xe5, 0xfd, 0x48, 0x57, 0x67, 0xfc, 0xbf, 0x93, 0x70, 0x29, 0xab, 0x84, 0xb4, 0xff,
    0x7f, 0x00, 0x00, 0xf0, 0xed, 0xc9, 0xff, 0x24, 0xfe, 0x1b, 0x1c, 0x54, 0x4c, 0xfb, 0xff, 0x5f, 0x62, 0xe1, 0x0c, 0x2f, 0xac, 0xe2, 0xff, 0xff, 0x01, 0x8a, 0x01, 0xc0, 0xbb, 0x3b, 0xe0, 0x1f,
    0x0a, 0xc3, 0x04, 0x65, 0x08, 0x0b, 0xe4, 0xff, 0x9f, 0x58, 0x02, 0x89, 0xeb, 0x8c, 0xff, 0xa7, 0x50, 0x32, 0x13, 0xf7, 0x54, 0xf0, 0xff, 0x00, 0x40, 0xed, 0x6b, 0xf7, 0x12, 0x00, 0xf7, 0x3e,
    0xe1, 0x4c, 0xeb, 0xd3, 0x85, 0xff, 0xaf, 0x4d, 0xb3, 0x23, 0x08, 0xff, 0xbf, 0x6e, 0x55, 0x80, 0xd0, 0x3e, 0xfe, 0xff, 0x00, 0x1a, 0x0c, 0x08, 0xee, 0xbe, 0xbf, 0x8d, 0x1c, 0x31, 0x50, 0xc1,
    0x57, 0x32, 0xf8, 0xbf, 0xfe, 0xc8, 0xe0, 0x29, 0xff, 0x9f, 0x5a, 0x9f, 0xcb, 0x21, 0x3d, 0x3f, 0xfe, 0x9f, 0x18, 0x53, 0x34, 0x07, 0xd8, 0xff, 0x01, 0x00, 0xc8, 0x7f, 0xed, 0xae, 0x00, 0x7c,
    0x17, 0x14, 0x5e, 0xef, 0x9d, 0xea, 0xff, 0x5f, 0xe6, 0x96, 0xd6, 0x4b, 0x79, 0xff, 0x7f, 0xd8, 0xfd, 0x1c, 0xdd, 0xe0, 0xff, 0x01, 0x40, 0x47, 0x03, 0x20, 0xed, 0x87, 0x36, 0x8c, 0xc2, 0x71,
    0x3f, 0x2e, 0xef, 0x7c, 0xff, 0xdf, 0xc8, 0x3a, 0xa3, 0x11, 0x96, 0xcb, 0xff, 0x87, 0x5a, 0x05, 0xfc, 0x1a, 0xf8, 0xff, 0x3f, 0x80, 0xdd, 0x05, 0x80, 0x4e, 0x9b, 0x8d, 0xff, 0xa0, 0xe2, 0x86,
    0x85, 0x17, 0xfa, 0xff, 0x7a, 0x61, 0x31, 0xff, 0xb1, 0x50, 0xfe, 0xff, 0x0f, 0x6e, 0x13, 0x00, 0x94, 0xbf, 0x19, 0xf0, 0xdb, 0x52, 0x86, 0x99, 0x6b, 0x56, 0x63, 0xd6, 0x89, 0x81, 0x8c, 0x09,
    0xfe, 0x7f, 0x14, 0x7d, 0xcf, 0x58, 0x8f, 0xfd, 0xff, 0xff, 0xf5, 0x16, 0x00, 0xd8, 0xd2, 0x2e, 0x00, 0xfe, 0x95, 0x53, 0xc0, 0x12, 0xb1, 0x35, 0x5d, 0x39, 0xc6, 0x2c, 0x07, 0xfb, 0xff, 0x66,
    0xda, 0xff, 0xc0, 0x99, 0xff, 0xff, 0x9c, 0x32, 0x03, 0x41, 0x22, 0xfc, 0xff, 0x01, 0xdc, 0x14, 0x00, 0xf4, 0xf9, 0xbb, 0x36, 0xe3, 0x9a, 0xd0, 0x45, 0x0e, 0xf8, 0x4f, 0x2f, 0xfd, 0x34, 0xf5,
    0xff, 0x57, 0x87, 0xc4, 0x29, 0x91, 0x76, 0x10, 0xff, 0xff, 0x0f, 0xb6, 0x0a, 0x00, 0x78, 0x73, 0x03, 0xf8, 0x79, 0x96, 0x12, 0x84, 0xe6, 0xba, 0x90, 0xff, 0x7f, 0x73, 0x90, 0x7e, 0xfe, 0x99,
    0xff, 0x0f, 0x86, 0x2b, 0x23, 0x76, 0x26, 0xfe, 0x8f, 0x00, 0x70, 0x4b, 0x03, 0xc0, 0x29, 0x1c, 0xf3, 0xfd, 0x8c, 0x90, 0xae, 0x65, 0x0c, 0xfb, 0x7f, 0x48, 0x3a, 0x56, 0x27, 0xb2, 0xfa, 0x7f,
    0x24, 0xa8, 0x50, 0xb4, 0x13, 0x31, 0xec, 0xfd, 0xff, 0x03, 0x00, 0x80, 0xdd, 0x7b, 0x53, 0xaf, 0xf8, 0x6f, 0xb3, 0x1f, 0xbd, 0x83, 0xe4, 0xd9, 0xff, 0x0b, 0xff, 0x01, 0x47, 0x50, 0x0e, 0xff,
    0xdf, 0x03, 0x2b, 0x82, 0x0f, 0xa4, 0x95, 0x3f, 0x00, 0x80, 0x7f, 0x07, 0x7e, 0xb6, 0x62, 0xd1, 0xff, 0x7b, 0xdb, 0x75, 0xf3, 0xf4, 0xff, 0x41, 0x70, 0xfb, 0x81, 0xad, 0xf0, 0xff, 0x00, 0x00,
    0x0f, 0x83, 0xff, 0x03, 0x60, 0x33, 0xb8, 0x3e, 0x08, 0xda, 0xc6, 0x76, 0x5f, 0xbc, 0xf9, 0xff, 0xa2, 0xb9, 0x43, 0x29, 0x54, 0xfd, 0x7f, 0x40, 0xf2, 0x86, 0x33, 0x0e, 0x14, 0xff, 0x7f, 0x00,
    0x56, 0x0c, 0x00, 0x4f, 0x1f, 0xe1, 0x7f, 0x4d, 0x1b, 0x27, 0xd2, 0xed, 0x08, 0x4b, 0xff, 0xbf, 0x95, 0x9e, 0xcf, 0x1c, 0x82, 0xff, 0x3f, 0xb5, 0x60, 0x11, 0x0c, 0x9a, 0xfa, 0x03, 0x00, 0x20,
    0xaf, 0xe5, 0xca, 0x01, 0xbf, 0x33, 0x52, 0x22, 0x4f, 0x83, 0x49, 0xe8, 0xcd, 0xff, 0xab, 0x47, 0xcb, 0x5b, 0x4f, 0xf2, 0xff, 0x22, 0x3d, 0x0b, 0x88, 0x12, 0xff, 0x07, 0x00, 0xbd, 0x04, 0x80,
    0xf3, 0xce, 0xaa, 0x3f, 0x42, 0xee, 0x5a, 0x6f, 0x86, 0xff, 0xff, 0x2f, 0x74, 0x1f, 0x93, 0xe7, 0xff, 0x37, 0x33, 0x83, 0x97, 0xff, 0x7f, 0x00, 0xb7, 0x0f, 0x00, 0x6e, 0xac, 0x84, 0x47, 0xcc,
    0x4e, 0x22, 0x4f, 0xb4, 0xe1, 0xff, 0x97, 0x62, 0xbc, 0x22, 0x02, 0xf8, 0xff, 0x95, 0x97, 0x94, 0x3f, 0xfa, 0xff, 0x3f, 0x58, 0x58, 0x00, 0xf8, 0x5b, 0xc9, 0xee, 0xc6, 0x38, 0xea, 0x01, 0x80,
    0x00, 0x98, 0x66, 0x0d, 0xff, 0x1a, 0xd4, 0x00, 0x00, 0x05, 0x00, 0xfe, 0xff, 0xdb, 0xff, 0x07, 0xfe, 0xff, 0xff, 0xff, 0xff, 0xff, 0xff, 0xff, 0xff, 0xff, 0xff, 0xff, 0xff, 0xff, 0xff, 0xff,
    0x00, 0x00, 0x00, 0x00, 0x00, 0x00, 0x00, 0x00, 0x00, 0x00, 0x00, 0x00, 0x00, 0x00, 0x06, 0x00, 0x08, 0x00, 0x04, 0x00, 0x06, 0x00, 0x00, 0x00, 0x04, 0x00, 0x00, 0x00, 0xb4, 0x0a, 0x00, 0x00,
    0x43, 0x4f, 0x50, 0x31, 0x01, 0x00, 0x10, 0x00, 0x08, 0x30, 0x00, 0x00, 0x00, 0x00, 0x06, 0x10, 0x05, 0x00, 0x00, 0x00, 0x05, 0x00, 0x00, 0x00, 0x05, 0x00, 0x00, 0x00, 0x02, 0x00, 0xa5, 0x02,
    0x30, 0x01, 0x00, 0x00, 0x30, 0x40, 0x00, 0x00, 0xa0, 0x06, 0x00, 0x00, 0x31, 0x01, 0x01, 0x00, 0x31, 0x40, 0x00, 0x00, 0xe0, 0x27, 0x00, 0x00, 0x32, 0x40, 0x00, 0x00, 0xa0, 0x00, 0x00, 0x00,
    0x10, 0x00, 0x00, 0x00, 0x0f, 0x01, 0x01, 0x00, 0x00, 0x40, 0x00, 0x00, 0x80, 0x25, 0x00, 0x00, 0x01, 0x40, 0x00, 0x00, 0x00, 0x00, 0x00, 0x00, 0x02, 0x40, 0x00, 0x00, 0x00, 0x00, 0x00, 0x00,
    0x03, 0x40, 0x00, 0x00, 0x00, 0x00, 0x00, 0x00, 0x0b, 0x01, 0xc7, 0x00, 0x0c, 0x01, 0xc7, 0x00, 0x0a, 0x01, 0x02, 0x00, 0x04, 0x01, 0x00, 0x00, 0x06, 0x40, 0x00, 0x00, 0x01, 0x00, 0x00, 0x00,
    0x05, 0x40, 0x00, 0x00, 0x03, 0x00, 0x00, 0x00, 0x04, 0x40, 0x00, 0x00, 0x01, 0x00, 0x00, 0x00, 0x09, 0x01, 0xc3, 0xff, 0x05, 0x01, 0x01, 0x00, 0x07, 0x01, 0x00, 0x00, 0x00, 0x01, 0x00, 0x00,
    0x01, 0x01, 0x00, 0x00, 0x03, 0x01, 0x01, 0x00, 0x02, 0x01, 0x01, 0x00, 0x1f, 0x01, 0x01, 0x00, 0x10, 0x40, 0x00, 0x00, 0x00, 0x00, 0x00, 0x00, 0x11, 0x40, 0x00, 0x00, 0x00, 0x00, 0x00, 0x00,
    0x12, 0x40, 0x00, 0x00, 0x00, 0x00, 0x00, 0x00, 0x13, 0x40, 0x00, 0x00, 0x00, 0x00, 0x00, 0x00, 0x1b, 0x01, 0xc7, 0x00, 0x1c, 0x01, 0xc7, 0x00, 0x1a, 0x01, 0x02, 0x00, 0x12, 0x01, 0xc7, 0x00,
    0x11, 0x01, 0x02, 0x00, 0x13, 0x01, 0x07, 0x00, 0x16, 0x40, 0x00, 0x00, 0x30, 0x00, 0x00, 0x00, 0x15, 0x40, 0x00, 0x00, 0x30, 0x00, 0x00, 0x00, 0x14, 0x40, 0x00, 0x00, 0x10, 0x00, 0x00, 0x00,
    0x18, 0x01, 0x80, 0xff, 0x14, 0x01, 0x41, 0x00, 0x21, 0x01, 0x01, 0x00, 0x20, 0x01, 0x01, 0x00, 0x22, 0x01, 0x04, 0x00, 0x28, 0x01, 0x01, 0x00, 0x20, 0x40, 0x00, 0x00, 0x30, 0x28, 0x00, 0x00,
    0x21, 0x40, 0x00, 0x00, 0x50, 0x00, 0x00, 0x00, 0x29, 0x01, 0x01, 0x00, 0x22, 0x40, 0x00, 0x00, 0xe0, 0x27, 0x00, 0x00, 0x23, 0x40, 0x00, 0x00, 0x50, 0x00, 0x00, 0x00, 0x25, 0x01, 0x00, 0x00,
    0x26, 0x01, 0x80, 0xff, 0x27, 0x01, 0x7f, 0x00, 0x16, 0x01, 0x1f, 0x00, 0x15, 0x01, 0x03, 0x00, 0x17, 0x01, 0x07, 0x00, 0x0d, 0x01, 0x0a, 0x00, 0x2d, 0x01, 0x1e, 0x00, 0x24, 0x01, 0x00, 0x00,
    0x2f, 0x01, 0x00, 0x00, 0x11, 0x00, 0x00, 0x00, 0x02, 0x00, 0x00, 0x00, 0x00, 0x40, 0x00, 0x00, 0x00, 0x00, 0x00, 0x00, 0x04, 0x01, 0x07, 0x00, 0x06, 0x40, 0x00, 0x00, 0x30, 0x00, 0x00, 0x00,
    0x05, 0x40, 0x00, 0x00, 0x30, 0x00, 0x00, 0x00, 0x04, 0x40, 0x00, 0x00, 0x10, 0x00, 0x00, 0x00, 0x09, 0x01, 0x80, 0xff, 0x05, 0x01, 0x41, 0x00, 0x03, 0x01, 0x00, 0x00, 0x10, 0x40, 0x00, 0x00,
    0x80, 0x25, 0x00, 0x00, 0x1b, 0x01, 0x63, 0x00, 0x1c, 0x01, 0x63, 0x00, 0x1a, 0x01, 0x01, 0x00, 0x12, 0x01, 0x63, 0x00, 0x11, 0x01, 0x01, 0x00, 0x16, 0x40, 0x00, 0x00, 0x20, 0x00, 0x00, 0x00,
    0x15, 0x40, 0x00, 0x00, 0x20, 0x00, 0x00, 0x00, 0x22, 0x01, 0x03, 0x00, 0x16, 0x01, 0x03, 0x00, 0x15, 0x01, 0x01, 0x00, 0x2f, 0x01, 0x03, 0x00, 0x05, 0x00, 0x00, 0x00, 0x30, 0x40, 0x00, 0x00,
    0x40, 0x07, 0x00, 0x00, 0x31, 0x40, 0x00, 0x00, 0x00, 0x32, 0x00, 0x00, 0x32, 0x40, 0x00, 0x00, 0xd0, 0x01, 0x00, 0x00, 0x10, 0x00, 0x00, 0x00, 0x00, 0x40, 0x00, 0x00, 0x80, 0x25, 0x00, 0x00,
    0x0b, 0x01, 0x63, 0x00, 0x0c, 0x01, 0x63, 0x00, 0x0a, 0x01, 0x01, 0x00, 0x06, 0x40, 0x00, 0x00, 0x20, 0x00, 0x00, 0x00, 0x05, 0x40, 0x00, 0x00, 0x20, 0x00, 0x00, 0x00, 0x02, 0x01, 0x00, 0x00,
    0x10, 0x40, 0x00, 0x00, 0x00, 0x00, 0x00, 0x00, 0x13, 0x01, 0x13, 0x00, 0x16, 0x40, 0x00, 0x00, 0x01, 0x00, 0x00, 0x00, 0x15, 0x40, 0x00, 0x00, 0x28, 0x00, 0x00, 0x00, 0x14, 0x40, 0x00, 0x00,
    0x14, 0x00, 0x00, 0x00, 0x14, 0x01, 0x01, 0x00, 0x21, 0x01, 0x00, 0x00, 0x20, 0x01, 0x00, 0x00, 0x22, 0x01, 0x04, 0x00, 0x20, 0x40, 0x00, 0x00, 0xd0, 0x32, 0x00, 0x00, 0x21, 0x40, 0x00, 0x00,
    0x00, 0x01, 0x00, 0x00, 0x22, 0x40, 0x00, 0x00, 0x00, 0x32, 0x00, 0x00, 0x23, 0x40, 0x00, 0x00, 0xd0, 0x00, 0x00, 0x00, 0x16, 0x01, 0x19, 0x00, 0x17, 0x01, 0x17, 0x00, 0x11, 0x00, 0x00, 0x00,
    0x02, 0x00, 0x00, 0x00, 0x30, 0x40, 0x00, 0x00, 0x10, 0x09, 0x00, 0x00, 0x31, 0x40, 0x00, 0x00, 0xa0, 0x0f, 0x00, 0x00, 0x32, 0x40, 0x00, 0x00, 0x80, 0x01, 0x00, 0x00, 0x12, 0x00, 0x01, 0x00,
    0x10, 0x00, 0x00, 0x00, 0x00, 0x40, 0x00, 0x00, 0x00, 0x00, 0x00, 0x00, 0x0b, 0x01, 0x00, 0x00, 0x0c, 0x01, 0x00, 0x00, 0x0a, 0x01, 0xc7, 0x00, 0x04, 0x01, 0x13, 0x00, 0x06, 0x40, 0x00, 0x00,
    0x01, 0x00, 0x00, 0x00, 0x05, 0x40, 0x00, 0x00, 0xa0, 0x0f, 0x00, 0x00, 0x04, 0x40, 0x00, 0x00, 0x14, 0x00, 0x00, 0x00, 0x05, 0x01, 0x01, 0x00, 0x10, 0x40, 0x00, 0x00, 0x20, 0x11, 0x00, 0x00,
    0x1b, 0x01, 0x00, 0x00, 0x1c, 0x01, 0x00, 0x00, 0x1a, 0x01, 0xc7, 0x00, 0x12, 0x01, 0x00, 0x00, 0x11, 0x01, 0xc7, 0x00, 0x13, 0x01, 0x09, 0x00, 0x15, 0x40, 0x00, 0x00, 0xd0, 0x07, 0x00, 0x00,
    0x14, 0x40, 0x00, 0x00, 0x0a, 0x00, 0x00, 0x00, 0x22, 0x01, 0x00, 0x00, 0x20, 0x40, 0x00, 0x00, 0x10, 0x10, 0x00, 0x00, 0x21, 0x40, 0x00, 0x00, 0x10, 0x01, 0x00, 0x00, 0x22, 0x40, 0x00, 0x00,
    0xa0, 0x0f, 0x00, 0x00, 0x23, 0x40, 0x00, 0x00, 0x70, 0x00, 0x00, 0x00, 0x16, 0x01, 0x01, 0x00, 0x15, 0x01, 0x31, 0x00, 0x17, 0x01, 0x0f, 0x00, 0x11, 0x00, 0x00, 0x00, 0x02, 0x00, 0x00, 0x00,
    0x30, 0x40, 0x00, 0x00, 0x90, 0x0a, 0x00, 0x00, 0x31, 0x40, 0x00, 0x00, 0xf0, 0x18, 0x00, 0x00, 0x32, 0x40, 0x00, 0x00, 0xb0, 0x00, 0x00, 0x00, 0x10, 0x00, 0x00, 0x00, 0x00, 0x40, 0x00, 0x00,
    0x20, 0x11, 0x00, 0x00, 0x04, 0x01, 0x09, 0x00, 0x05, 0x40, 0x00, 0x00, 0xd0, 0x07, 0x00, 0x00, 0x04, 0x40, 0x00, 0x00, 0x0a, 0x00, 0x00, 0x00, 0x10, 0x40, 0x00, 0x00, 0x00, 0x00, 0x00, 0x00,
    0x13, 0x01, 0x04, 0x00, 0x15, 0x40, 0x00, 0x00, 0xe8, 0x03, 0x00, 0x00, 0x14, 0x40, 0x00, 0x00, 0x05, 0x00, 0x00, 0x00, 0x20, 0x40, 0x00, 0x00, 0x30, 0x19, 0x00, 0x00, 0x21, 0x40, 0x00, 0x00,
    0x70, 0x00, 0x00, 0x00, 0x22, 0x40, 0x00, 0x00, 0xf0, 0x18, 0x00, 0x00, 0x23, 0x40, 0x00, 0x00, 0x40, 0x00, 0x00, 0x00, 0x17, 0x01, 0x07, 0x00, 0x11, 0x00, 0x00, 0x00, 0x02, 0x00, 0x00, 0x00,
    0x00, 0x40, 0x00, 0x00, 0x00, 0x00, 0x00, 0x00, 0x0a, 0x01, 0x00, 0x00, 0x04, 0x01, 0xe7, 0x03, 0x05, 0x40, 0x00, 0x00, 0xe8, 0x03, 0x00, 0x00, 0x04, 0x40, 0x00, 0x00, 0xe8, 0x03, 0x00, 0x00,
    0x10, 0x40, 0x00, 0x00, 0xf0, 0x03, 0x00, 0x00, 0x1a, 0x01, 0x00, 0x00, 0x11, 0x01, 0x00, 0x00, 0x13, 0x01, 0x02, 0x00, 0x15, 0x40, 0x00, 0x00, 0x03, 0x00, 0x00, 0x00, 0x14, 0x40, 0x00, 0x00,
    0x03, 0x00, 0x00, 0x00, 0x18, 0x01, 0x3f, 0x00, 0x28, 0x01, 0x00, 0x00, 0x20, 0x40, 0x00, 0x00, 0x60, 0x0b, 0x00, 0x00, 0x21, 0x40, 0x00, 0x00, 0x10, 0x0f, 0x00, 0x00, 0x29, 0x01, 0x00, 0x00,
    0x22, 0x40, 0x00, 0x00, 0x40, 0x0b, 0x00, 0x00, 0x23, 0x40, 0x00, 0x00, 0x20, 0x00, 0x00, 0x00, 0x15, 0x01, 0x01, 0x00, 0x02, 0x00, 0x00, 0x00, 0x00, 0x40, 0x00, 0x00, 0xf0, 0x03, 0x00, 0x00,
    0x0a, 0x01, 0x02, 0x00, 0x04, 0x01, 0x00, 0x00, 0x05, 0x40, 0x00, 0x00, 0x03, 0x00, 0x00, 0x00, 0x04, 0x40, 0x00, 0x00, 0x01, 0x00, 0x00, 0x00, 0x09, 0x01, 0x3f, 0x00, 0x10, 0x40, 0x00, 0x00,
    0x40, 0x00, 0x00, 0x00, 0x13, 0x01, 0x00, 0x00, 0x16, 0x40, 0x00, 0x00, 0x10, 0x00, 0x00, 0x00, 0x15, 0x40, 0x00, 0x00, 0x10, 0x00, 0x00, 0x00, 0x14, 0x40, 0x00, 0x00, 0x10, 0x00, 0x00, 0x00,
    0x14, 0x01, 0x41, 0x00, 0x20, 0x01, 0x02, 0x00, 0x2f, 0x01, 0x00, 0x00, 0x05, 0x00, 0x00, 0x00, 0x30, 0x40, 0x00, 0x00, 0x00, 0x02, 0x00, 0x00, 0x31, 0x01, 0x03, 0x01, 0x31, 0x40, 0x00, 0x00,
    0x00, 0xb8, 0x00, 0x00, 0x32, 0x40, 0x00, 0x00, 0x00, 0x04, 0x00, 0x00, 0x10, 0x00, 0x00, 0x00, 0x25, 0x40, 0x00, 0x00, 0x01, 0x00, 0x00, 0x00, 0x26, 0x40, 0x00, 0x00, 0x01, 0x00, 0x00, 0x00,
    0x24, 0x40, 0x00, 0x00, 0x01, 0x00, 0x00, 0x00, 0x0a, 0x01, 0x00, 0x00, 0x04, 0x01, 0x02, 0x00, 0x04, 0x40, 0x00, 0x00, 0x03, 0x00, 0x00, 0x00, 0x10, 0x40, 0x00, 0x00, 0x00, 0x00, 0x00, 0x00,
    0x13, 0x01, 0x02, 0x00, 0x16, 0x40, 0x00, 0x00, 0x40, 0x00, 0x00, 0x00, 0x15, 0x40, 0x00, 0x00, 0x40, 0x00, 0x00, 0x00, 0x14, 0x40, 0x00, 0x00, 0x40, 0x00, 0x00, 0x00, 0x18, 0x01, 0x7f, 0x00,
    0x14, 0x01, 0x45, 0x01, 0x25, 0x01, 0x10, 0x30, 0x0d, 0x01, 0x2e, 0x00, 0x2d, 0x01, 0x2e, 0x00, 0x8d, 0x01, 0x0a, 0x00, 0x8f, 0x01, 0x01, 0x00, 0x80, 0x40, 0x00, 0x00, 0x40, 0x00, 0x00, 0x00,
    0x81, 0x40, 0x00, 0x00, 0x00, 0x00, 0x00, 0x00, 0x82, 0x40, 0x00, 0x00, 0x00, 0x00, 0x00, 0x00, 0x83, 0x40, 0x00, 0x00, 0x00, 0x00, 0x00, 0x00, 0x8b, 0x01, 0x00, 0x00, 0x8c, 0x01, 0x00, 0x00,
    0x8a, 0x01, 0x00, 0x00, 0x86, 0x40, 0x00, 0x00, 0x10, 0x00, 0x00, 0x00, 0x85, 0x40, 0x00, 0x00, 0x10, 0x00, 0x00, 0x00, 0x84, 0x40, 0x00, 0x00, 0x10, 0x00, 0x00, 0x00, 0x89, 0x01, 0x3f, 0x00,
    0x85, 0x01, 0x41, 0x00, 0x80, 0x01, 0x04, 0x00, 0x11, 0x00, 0x00, 0x00, 0x06, 0x00, 0x02, 0x00, 0x00, 0x40, 0x00, 0x00, 0x00, 0x00, 0x00, 0x00, 0x06, 0x40, 0x00, 0x00, 0x40, 0x00, 0x00, 0x00,
    0x05, 0x40, 0x00, 0x00, 0x40, 0x00, 0x00, 0x00, 0x04, 0x40, 0x00, 0x00, 0x40, 0x00, 0x00, 0x00, 0x09, 0x01, 0x00, 0x00, 0x05, 0x01, 0x49, 0x00, 0x10, 0x40, 0x00, 0x00, 0x40, 0x00, 0x00, 0x00,
    0x16, 0x40, 0x00, 0x00, 0x04, 0x00, 0x00, 0x00, 0x15, 0x40, 0x00, 0x00, 0x0c, 0x00, 0x00, 0x00, 0x14, 0x40, 0x00, 0x00, 0x0c, 0x00, 0x00, 0x00, 0x18, 0x01, 0x3f, 0x00, 0x14, 0x01, 0x05, 0x80,
    0x25, 0x01, 0x00, 0x00, 0x26, 0x01, 0xbf, 0xff, 0x27, 0x01, 0xbe, 0x00, 0x8d, 0x01, 0x12, 0x00, 0x8f, 0x01, 0x00, 0x00, 0x80, 0x40, 0x00, 0x00, 0x00, 0x06, 0x00, 0x00, 0x86, 0x40, 0x00, 0x00,
    0x04, 0x00, 0x00, 0x00, 0x85, 0x40, 0x00, 0x00, 0x04, 0x00, 0x00, 0x00, 0x84, 0x40, 0x00, 0x00, 0x04, 0x00, 0x00, 0x00, 0x89, 0x01, 0x00, 0x00, 0x85, 0x01, 0x09, 0x00, 0x06, 0x00, 0x08, 0x00,
    0x00, 0x40, 0x00, 0x00, 0x40, 0x00, 0x00, 0x00, 0x06, 0x40, 0x00, 0x00, 0x04, 0x00, 0x00, 0x00, 0x05, 0x40, 0x00, 0x00, 0x0c, 0x00, 0x00, 0x00, 0x04, 0x40, 0x00, 0x00, 0x0c, 0x00, 0x00, 0x00,
    0x05, 0x01, 0x09, 0x00, 0x10, 0x40, 0x00, 0x00, 0x60, 0x00, 0x00, 0x00, 0x13, 0x01, 0x00, 0x00, 0x16, 0x40, 0x00, 0x00, 0x40, 0x00, 0x00, 0x00, 0x15, 0x40, 0x00, 0x00, 0x40, 0x00, 0x00, 0x00,
    0x14, 0x40, 0x00, 0x00, 0x40, 0x00, 0x00, 0x00, 0x14, 0x01, 0x45, 0x01, 0x20, 0x01, 0x00, 0x00, 0x0d, 0x01, 0x12, 0x00, 0x2d, 0x01, 0x1e, 0x00, 0x05, 0x00, 0x02, 0x00, 0x00, 0x40, 0x00, 0x00,
    0x60, 0x00, 0x00, 0x00, 0x04, 0x01, 0x00, 0x00, 0x06, 0x40, 0x00, 0x00, 0x40, 0x00, 0x00, 0x00, 0x05, 0x40, 0x00, 0x00, 0x40, 0x00, 0x00, 0x00, 0x04, 0x40, 0x00, 0x00, 0x40, 0x00, 0x00, 0x00,
    0x05, 0x01, 0x49, 0x00, 0x10, 0x40, 0x00, 0x00, 0xa0, 0x00, 0x00, 0x00, 0x14, 0x01, 0x45, 0x00, 0x0d, 0x01, 0x2e, 0x00, 0x2d, 0x01, 0x2e, 0x00, 0x06, 0x00, 0x07, 0x00, 0x00, 0x40, 0x00, 0x00,
    0xa0, 0x00, 0x00, 0x00, 0x10, 0x40, 0x00, 0x00, 0x40, 0x00, 0x00, 0x00, 0x16, 0x40, 0x00, 0x00, 0x04, 0x00, 0x00, 0x00, 0x15, 0x40, 0x00, 0x00, 0x04, 0x00, 0x00, 0x00, 0x14, 0x40, 0x00, 0x00,
    0x04, 0x00, 0x00, 0x00, 0x14, 0x01, 0x05, 0x01, 0x80, 0x40, 0x00, 0x00, 0x10, 0x06, 0x00, 0x00, 0x80, 0x01, 0x40, 0x00, 0x06, 0x00, 0x02, 0x00, 0x10, 0x40, 0x00, 0x00, 0x50, 0x00, 0x00, 0x00,
    0x80, 0x40, 0x00, 0x00, 0x20, 0x06, 0x00, 0x00, 0x80, 0x01, 0x00, 0x00, 0x2f, 0x01, 0x03, 0x00, 0x06, 0x00, 0x02, 0x00, 0x00, 0x40, 0x00, 0x00, 0x60, 0x00, 0x00, 0x00, 0x14, 0x01, 0x05, 0x00,
    0x8f, 0x01, 0x01, 0x00, 0x80, 0x40, 0x00, 0x00, 0x50, 0x00, 0x00, 0x00, 0x2f, 0x01, 0x00, 0x00, 0x06, 0x00, 0x09, 0x00, 0x00, 0x40, 0x00, 0x00, 0x50, 0x00, 0x00, 0x00, 0x06, 0x40, 0x00, 0x00,
    0x04, 0x00, 0x00, 0x00, 0x05, 0x40, 0x00, 0x00, 0x04, 0x00, 0x00, 0x00, 0x04, 0x40, 0x00, 0x00, 0x04, 0x00, 0x00, 0x00, 0x05, 0x01, 0x09, 0x00, 0x14, 0x01, 0x05, 0x01, 0x8f, 0x01, 0x00, 0x00,
    0x80, 0x40, 0x00, 0x00, 0x30, 0x06, 0x00, 0x00, 0x06, 0x00, 0x02, 0x00, 0x14, 0x01, 0x05, 0x00, 0x80, 0x40, 0x00, 0x00, 0x20, 0x06, 0x00, 0x00, 0x06, 0x00, 0x09, 0x00, 0x24, 0x40, 0x01, 0x00,
    0x01, 0x00, 0x00, 0x00, 0x18, 0x01, 0x00, 0x00, 0x14, 0x01, 0x05, 0x01, 0x26, 0x01, 0x80, 0xff, 0x27, 0x01, 0x7f, 0x00, 0x80, 0x40, 0x00, 0x00, 0x40, 0x06, 0x00, 0x00, 0x06, 0x00, 0x01, 0x00,
    0x24, 0x40, 0x1f, 0x00, 0x00, 0x00, 0x00, 0x40, 0x10, 0x40, 0x00, 0x00, 0x70, 0x00, 0x00, 0x00, 0x80, 0x40, 0x00, 0x00, 0x50, 0x06, 0x00, 0x00, 0x06, 0x00, 0x00, 0x00, 0x24, 0x40, 0x00, 0x00,
    0x01, 0x00, 0x00, 0x00, 0x00, 0x40, 0x00, 0x00, 0x70, 0x00, 0x00, 0x00, 0x80, 0x40, 0x00, 0x00, 0x60, 0x06, 0x00, 0x00, 0x06, 0x00, 0x01, 0x00, 0x24, 0x40, 0x1f, 0x00, 0x00, 0x00, 0x00, 0x40,
    0x10, 0x40, 0x00, 0x00, 0x60, 0x00, 0x00, 0x00, 0x8f, 0x01, 0x01, 0x00, 0x80, 0x40, 0x00, 0x00, 0x50, 0x00, 0x00, 0x00, 0x06, 0x00, 0x00, 0x00, 0x24, 0x40, 0x00, 0x00, 0x01, 0x00, 0x00, 0x00,
    0x00, 0x40, 0x00, 0x00, 0x60, 0x00, 0x00, 0x00, 0x8f, 0x01, 0x00, 0x00, 0x80, 0x40, 0x00, 0x00, 0x70, 0x06, 0x00, 0x00, 0x80, 0x01, 0x40, 0x00, 0x06, 0x00, 0x02, 0x00, 0x24, 0x40, 0x1f, 0x00,
    0x00, 0x00, 0x00, 0x40, 0x00, 0x40, 0x00, 0x00, 0x70, 0x00, 0x00, 0x00, 0x8f, 0x01, 0x01, 0x00, 0x80, 0x40, 0x00, 0x00, 0x60, 0x00, 0x00, 0x00, 0x80, 0x01, 0x00, 0x00, 0x06, 0x00, 0x00, 0x00,
    0x24, 0x40, 0x00, 0x00, 0x01, 0x00, 0x00, 0x00, 0x00, 0x40, 0x00, 0x00, 0x60, 0x00, 0x00, 0x00, 0x18, 0x01, 0x3f, 0x00, 0x26, 0x01, 0xbf, 0xff, 0x27, 0x01, 0xbe, 0x00, 0x8f, 0x01, 0x00, 0x00,
    0x80, 0x40, 0x00, 0x00, 0x80, 0x06, 0x00, 0x00, 0x06, 0x00, 0x00, 0x00, 0x00, 0x40, 0x00, 0x00, 0x70, 0x00, 0x00, 0x00, 0x18, 0x01, 0x00, 0x00, 0x26, 0x01, 0x80, 0xff, 0x27, 0x01, 0x7f, 0x00,
    0x8f, 0x01, 0x01, 0x00, 0x80, 0x40, 0x00, 0x00, 0x60, 0x00, 0x00, 0x00, 0x06, 0x00, 0x01, 0x00, 0x24, 0x40, 0x1f, 0x00, 0x00, 0x00, 0x00, 0x40, 0x00, 0x40, 0x00, 0x00, 0x60, 0x00, 0x00, 0x00,
    0x10, 0x40, 0x00, 0x00, 0x70, 0x00, 0x00, 0x00, 0x80, 0x40, 0x00, 0x00, 0x50, 0x00, 0x00, 0x00, 0x06, 0x00, 0x00, 0x00, 0x24, 0x40, 0x00, 0x00, 0x01, 0x00, 0x00, 0x00, 0x00, 0x40, 0x00, 0x00,
    0x70, 0x00, 0x00, 0x00, 0x8f, 0x01, 0x00, 0x00, 0x80, 0x40, 0x00, 0x00, 0x70, 0x06, 0x00, 0x00, 0x80, 0x01, 0x40, 0x00, 0x06, 0x00, 0x02, 0x00, 0x24, 0x40, 0x1f, 0x00, 0x00, 0x00, 0x00, 0x40,
    0x00, 0x40, 0x00, 0x00, 0x60, 0x00, 0x00, 0x00, 0x8f, 0x01, 0x01, 0x00, 0x80, 0x40, 0x00, 0x00, 0x70, 0x00, 0x00, 0x00, 0x80, 0x01, 0x00, 0x00, 0x06, 0x00, 0x00, 0x00, 0x24, 0x40, 0x00, 0x00,
    0x01, 0x00, 0x00, 0x00, 0x00, 0x40, 0x00, 0x00, 0x70, 0x00, 0x00, 0x00, 0x18, 0x01, 0x3f, 0x00, 0x26, 0x01, 0xbf, 0xff, 0x27, 0x01, 0xbe, 0x00, 0x8f, 0x01, 0x00, 0x00, 0x80, 0x40, 0x00, 0x00,
    0x80, 0x06, 0x00, 0x00, 0x06, 0x00, 0x00, 0x00, 0x00, 0x40, 0x00, 0x00, 0x60, 0x00, 0x00, 0x00, 0x18, 0x01, 0x00, 0x00, 0x26, 0x01, 0x80, 0xff, 0x27, 0x01, 0x7f, 0x00, 0x8f, 0x01, 0x01, 0x00,
    0x80, 0x40, 0x00, 0x00, 0x70, 0x00, 0x00, 0x00, 0x06, 0x00, 0x01, 0x00, 0x24, 0x40, 0x1f, 0x00, 0x00, 0x00, 0x00, 0x40, 0x00, 0x40, 0x00, 0x00, 0x70, 0x00, 0x00, 0x00, 0x10, 0x40, 0x00, 0x00,
    0x60, 0x00, 0x00, 0x00, 0x80, 0x40, 0x00, 0x00, 0x50, 0x00, 0x00, 0x00, 0x06, 0x00, 0x00, 0x00, 0x24, 0x40, 0x00, 0x00, 0x01, 0x00, 0x00, 0x00, 0x00, 0x40, 0x00, 0x00, 0x60, 0x00, 0x00, 0x00,
    0x8f, 0x01, 0x00, 0x00, 0x80, 0x40, 0x00, 0x00, 0x70, 0x06, 0x00, 0x00, 0x80, 0x01, 0x40, 0x00, 0x06, 0x00, 0x02, 0x00, 0x24, 0x40, 0x1f, 0x00, 0x00, 0x00, 0x00, 0x40, 0x00, 0x40, 0x00, 0x00,
    0x70, 0x00, 0x00, 0x00, 0x8f, 0x01, 0x01, 0x00, 0x80, 0x40, 0x00, 0x00, 0x60, 0x00, 0x00, 0x00, 0x80, 0x01, 0x00, 0x00, 0x06, 0x00, 0x00, 0x00, 0x24, 0x40, 0x00, 0x00, 0x01, 0x00, 0x00, 0x00,
    0x00, 0x40, 0x00, 0x00, 0x60, 0x00, 0x00, 0x00, 0x18, 0x01, 0x3f, 0x00, 0x26, 0x01, 0xbf, 0xff, 0x27, 0x01, 0xbe, 0x00, 0x8f, 0x01, 0x00, 0x00, 0x80, 0x40, 0x00, 0x00, 0x80, 0x06, 0x00, 0x00,
    0x06, 0x00, 0x00, 0x00, 0x00, 0x40, 0x00, 0x00, 0x70, 0x00, 0x00, 0x00, 0x18, 0x01, 0x00, 0x00, 0x26, 0x01, 0x80, 0xff, 0x27, 0x01, 0x7f, 0x00, 0x8f, 0x01, 0x01, 0x00, 0x80, 0x40, 0x00, 0x00,
    0x60, 0x00, 0x00, 0x00, 0x06, 0x00, 0x01, 0x00, 0x00, 0x40, 0x00, 0x00, 0x60, 0x00, 0x00, 0x00, 0x8f, 0x01, 0x00, 0x00, 0x80, 0x40, 0x00, 0x00, 0x90, 0x06, 0x00, 0x00, 0x06, 0x00, 0x00, 0x00,
    0x24, 0x40, 0x1f, 0x00, 0x00, 0x00, 0x00, 0x40, 0x00, 0x40, 0x00, 0x00, 0x00, 0x00, 0x00, 0x00, 0x04, 0x01, 0x02, 0x00, 0x06, 0x40, 0x00, 0x00, 0x40, 0x00, 0x00, 0x00, 0x05, 0x40, 0x00, 0x00,
    0x40, 0x00, 0x00, 0x00, 0x04, 0x40, 0x00, 0x00, 0x40, 0x00, 0x00, 0x00, 0x05, 0x01, 0x49, 0x00, 0x10, 0x40, 0x00, 0x00, 0x70, 0x00, 0x00, 0x00, 0x13, 0x01, 0x02, 0x00, 0x16, 0x40, 0x00, 0x00,
    0x40, 0x00, 0x00, 0x00, 0x15, 0x40, 0x00, 0x00, 0x40, 0x00, 0x00, 0x00, 0x14, 0x40, 0x00, 0x00, 0x40, 0x00, 0x00, 0x00, 0x14, 0x01, 0x45, 0x01, 0x8f, 0x01, 0x01, 0x00, 0x80, 0x40, 0x00, 0x00,
    0x60, 0x00, 0x00, 0x00, 0x80, 0x01, 0x04, 0x00, 0x06, 0x00, 0x00, 0x00, 0x24, 0x40, 0x00, 0x00, 0x01, 0x00, 0x00, 0x00, 0x00, 0x40, 0x00, 0x00, 0x70, 0x00, 0x00, 0x00, 0x10, 0x40, 0x00, 0x00,
    0x00, 0x00, 0x00, 0x00, 0x16, 0x40, 0x00, 0x00, 0x01, 0x00, 0x00, 0x00, 0x15, 0x40, 0x00, 0x00, 0x03, 0x00, 0x00, 0x00, 0x14, 0x40, 0x00, 0x00, 0x03, 0x00, 0x00, 0x00, 0x18, 0x01, 0x80, 0xff,
    0x14, 0x01, 0x01, 0x80, 0x80, 0x40, 0x00, 0x00, 0x40, 0x00, 0x00, 0x00, 0x06, 0x00, 0x08, 0x00, 0x00, 0x00, 0xff, 0xff, 0x00, 0x00, 0x00, 0x00, 0x00, 0x00, 0x00, 0x00, 0x00, 0x00, 0x00, 0x00,
    0x04, 0x00, 0x04, 0x00, 0x04, 0x00, 0x00, 0x00, 0x01, 0x00, 0x00, 0x00, 0x14, 0x00, 0x00, 0x00, 0x00, 0x00, 0x0e, 0x00, 0x18, 0x00, 0x14, 0x00, 0x10, 0x00, 0x0c, 0x00, 0x08, 0x00, 0x04, 0x00,
    0x0e, 0x00, 0x00, 0x00, 0x74, 0x02, 0x00, 0x00, 0x10, 0x00, 0x00, 0x00, 0x74, 0x00, 0x00, 0x00, 0x78, 0x00, 0x00, 0x00, 0x7c, 0x00, 0x00, 0x00, 0x01, 0x00, 0x00, 0x00, 0x1c, 0x00, 0x00, 0x00,
    0x00, 0x00, 0x16, 0x00, 0x18, 0x00, 0x00, 0x00, 0x14, 0x00, 0x10, 0x00, 0x00, 0x00, 0x00, 0x00, 0x08, 0x00, 0x00, 0x00, 0x04, 0x00, 0x0c, 0x00, 0x16, 0x00, 0x00, 0x00, 0x14, 0x00, 0x00, 0x00,
    0x14, 0x00, 0x00, 0x00, 0x18, 0x00, 0x00, 0x00, 0x18, 0x00, 0x00, 0x00, 0x1c, 0x00, 0x00, 0x00, 0x00, 0x00, 0x00, 0x00, 0x03, 0x00, 0x00, 0x00, 0x01, 0x04, 0x01, 0x00, 0x00, 0x00, 0x00, 0x00,
    0x01, 0x00, 0x00, 0x00, 0x00, 0x00, 0x00, 0x00, 0x05, 0x00, 0x00, 0x00, 0x01, 0x00, 0x00, 0x00, 0x02, 0x00, 0x00, 0x00, 0x03, 0x00, 0x00, 0x00, 0x04, 0x00, 0x00, 0x00, 0x05, 0x00, 0x00, 0x00,
    0x01, 0x00, 0x00, 0x00, 0x00, 0x00, 0x00, 0x00, 0x01, 0x00, 0x00, 0x00, 0x05, 0x00, 0x00, 0x00, 0x06, 0x00, 0x00, 0x00, 0x74, 0x01, 0x00, 0x00, 0x24, 0x01, 0x00, 0x00, 0xe0, 0x00, 0x00, 0x00,
    0xa8, 0x00, 0x00, 0x00, 0x60, 0x00, 0x00, 0x00, 0x04, 0x00, 0x00, 0x00, 0xb2, 0xfe, 0xff, 0xff, 0x10, 0x00, 0x00, 0x00, 0x2c, 0x00, 0x00, 0x00, 0x00, 0x00, 0x00, 0x09, 0x3c, 0x00, 0x00, 0x00,
    0xa4, 0xfe, 0xff, 0xff, 0x08, 0x00, 0x00, 0x00, 0x10, 0x00, 0x00, 0x00, 0x01, 0x00, 0x00, 0x00, 0xc3, 0xff, 0xff, 0xff, 0xff, 0xff, 0xff, 0xff, 0x01, 0x00, 0x00, 0x00, 0xb0, 0xaf, 0x2e, 0x3c,
    0x13, 0x00, 0x00, 0x00, 0x73, 0x65, 0x72, 0x76, 0x69, 0x6e, 0x67, 0x5f, 0x64, 0x65, 0x66, 0x61, 0x75, 0x6c, 0x74, 0x5f, 0x78, 0x3a, 0x30, 0x00, 0x02, 0x00, 0x00, 0x00, 0x01, 0x00, 0x00, 0x00,
    0x58, 0x02, 0x00, 0x00, 0xc8, 0xff, 0xff, 0xff, 0x0c, 0x00, 0x00, 0x00, 0x00, 0x00, 0x00, 0x03, 0x24, 0x00, 0x00, 0x00, 0x19, 0x00, 0x00, 0x00, 0x6d, 0x61, 0x69, 0x6e, 0x5f, 0x73, 0x70, 0x6c,
    0x69, 0x74, 0x5f, 0x31, 0x5f, 0x73, 0x63, 0x72, 0x61, 0x74, 0x63, 0x68, 0x5f, 0x66, 0x61, 0x73, 0x74, 0x00, 0x00, 0x00, 0x01, 0x00, 0x00, 0x00, 0xd0, 0x33, 0x00, 0x00, 0x0c, 0x00, 0x10, 0x00,
    0x0c, 0x00, 0x0b, 0x00, 0x00, 0x00, 0x04, 0x00, 0x0c, 0x00, 0x00, 0x00, 0x0c, 0x00, 0x00, 0x00, 0x00, 0x00, 0x00, 0x03, 0x20, 0x00, 0x00, 0x00, 0x14, 0x00, 0x00, 0x00, 0x6d, 0x61, 0x69, 0x6e,
    0x5f, 0x73, 0x70, 0x6c, 0x69, 0x74, 0x5f, 0x31, 0x5f, 0x73, 0x63, 0x72, 0x61, 0x74, 0x63, 0x68, 0x00, 0x00, 0x00, 0x00, 0x01, 0x00, 0x00, 0x00, 0xd0, 0x33, 0x00, 0x00, 0xcc, 0xff, 0xff, 0xff,
    0x10, 0x00, 0x00, 0x00, 0x02, 0x00, 0x00, 0x00, 0x00, 0x00, 0x00, 0x03, 0x1c, 0x00, 0x00, 0x00, 0x12, 0x00, 0x00, 0x00, 0x6d, 0x61, 0x69, 0x6e, 0x5f, 0x73, 0x70, 0x6c, 0x69, 0x74, 0x5f, 0x31,
    0x5f, 0x66, 0x6c, 0x61, 0x73, 0x68, 0x00, 0x00, 0x01, 0x00, 0x00, 0x00, 0x70, 0x1a, 0x00, 0x00, 0x0c, 0x00, 0x14, 0x00, 0x10, 0x00, 0x0f, 0x00, 0x08, 0x00, 0x04, 0x00, 0x0c, 0x00, 0x00, 0x00,
    0x10, 0x00, 0x00, 0x00, 0x01, 0x00, 0x00, 0x00, 0x00, 0x00, 0x00, 0x03, 0x24, 0x00, 0x00, 0x00, 0x1b, 0x00, 0x00, 0x00, 0x6d, 0x61, 0x69, 0x6e, 0x5f, 0x73, 0x70, 0x6c, 0x69, 0x74, 0x5f, 0x31,
    0x5f, 0x63, 0x6f, 0x6d, 0x6d, 0x61, 0x6e, 0x64, 0x5f, 0x73, 0x74, 0x72, 0x65, 0x61, 0x6d, 0x00, 0x01, 0x00, 0x00, 0x00, 0xb4, 0x0a, 0x00, 0x00, 0x00, 0x00, 0x0e, 0x00, 0x14, 0x00, 0x10, 0x00,
    0x0f, 0x00, 0x00, 0x00, 0x08, 0x00, 0x04, 0x00, 0x0e, 0x00, 0x00, 0x00, 0x1c, 0x00, 0x00, 0x00, 0x3c, 0x00, 0x00, 0x00, 0x00, 0x00, 0x00, 0x09, 0x54, 0x00, 0x00, 0x00, 0x0c, 0x00, 0x0c, 0x00,
    0x00, 0x00, 0x00, 0x00, 0x08, 0x00, 0x04, 0x00, 0x0c, 0x00, 0x00, 0x00, 0x08, 0x00, 0x00, 0x00, 0x14, 0x00, 0x00, 0x00, 0x01, 0x00, 0x00, 0x00, 0x80, 0xff, 0xff, 0xff, 0xff, 0xff, 0xff, 0xff,
    0x00, 0x00, 0x00, 0x00, 0x01, 0x00, 0x00, 0x00, 0x00, 0x00, 0x80, 0x3b, 0x19, 0x00, 0x00, 0x00, 0x53, 0x74, 0x61, 0x74, 0x65, 0x66, 0x75, 0x6c, 0x50, 0x61, 0x72, 0x74, 0x69, 0x74, 0x69, 0x6f,
    0x6e, 0x65, 0x64, 0x43, 0x61, 0x6c, 0x6c, 0x3a, 0x30, 0x00, 0x00, 0x00, 0x02, 0x00, 0x00, 0x00, 0x01, 0x00, 0x00, 0x00, 0x03, 0x00, 0x00, 0x00, 0x04, 0x00, 0x00, 0x00, 0x6d, 0x61, 0x69, 0x6e,
    0x00, 0x00, 0x00, 0x00, 0x14, 0x00, 0x00, 0x00, 0x56, 0x65, 0x6c, 0x61, 0x20, 0x34, 0x2e, 0x30, 0x2e, 0x31, 0x20, 0x4f, 0x70, 0x74, 0x69, 0x6d, 0x69, 0x73, 0x65, 0x64, 0x00, 0x00, 0x00, 0x00,
    0x01, 0x00, 0x00, 0x00, 0x10, 0x00, 0x00, 0x00, 0x0c, 0x00, 0x10, 0x00, 0x0f, 0x00, 0x04, 0x00, 0x00, 0x00, 0x08, 0x00, 0x0c, 0x00, 0x00, 0x00, 0x0c, 0x00, 0x00, 0x00, 0x20, 0x00, 0x00, 0x00,
    0x00, 0x00, 0x00, 0x20, 0x07, 0x00, 0x00, 0x00, 0x65, 0x74, 0x68, 0x6f, 0x73, 0x2d, 0x75, 0x00,
};


const uint8_t *GetModelPointer()
{
    return nn_model;
}

size_t GetModelLen()
{
    return sizeof(nn_model);
}

} /* namespace arm */
} /* namespace app */
} /* namespace nn */
